11000010 00100110 10011000 00000101 
11101001 01100010 11101011 00111010 
10111001 01110101 11001001 10001000 
11001000 00111001 11001000 11111100 

10001000 00101011 10110100 01110000 
01001011 01010101 10001110 01110101 
01011111 01000101 00110000 11100011 
00100100 10111111 11100010 10111001 

10101011 00001010 01000011 10000011 
11100111 00010100 10000100 10110000 
10100010 01111010 00100100 01010101 
00010010 11110101 00011000 11000111 

01010101 11110011 10100101 11111101 
10101011 11110000 11110010 01001111 
10000001 11100011 00101111 01000111 
11101011 01111101 00000100 00111110 

10101100 01100011 00001100 11101110 
11001001 00100111 10100010 11101010 
10101110 11011001 00111100 00111010 
10101110 00000110 00110111 00010111 

10010111 10100001 10101111 00011101 
10110000 01101010 00001100 00101110 
01101001 01100111 11111010 01111011 
00111100 00100000 01011111 11101010 

01111011 10111111 11101001 01000001 
10011111 10110011 01001001 00101000 
11000001 10101011 11111000 10111100 
01001011 10110001 10001101 00110010 

11001100 11000111 10001101 00000100 
10011111 10111000 11100000 00101111 
11011110 01110010 01001111 01100100 
11101110 00011101 11110010 10111011 


11000010 00100110 10011000 00000101 
11101001 01100010 11101011 00111010 
10111001 01110101 11001001 10001000 
11001000 00111001 11001000 11111100 

10001000 00101011 10110100 01110000 
01001011 01010101 10001110 01110101 
01011111 01000101 00110000 11100011 
00100100 10111111 11100010 10111001 

10101011 00001010 01000011 10000011 
11100111 00010100 10000100 10110000 
10100010 01111010 00100100 01010101 
00010010 11110101 00011000 11000111 

01010101 11110011 10100101 11111101 
10101011 11110000 11110010 01001111 
10000001 11100011 00101111 01000111 
11101011 01111101 00000100 00111110 

10101100 01100011 00001100 11101110 
11001001 00100111 10100010 11101010 
10101110 11011001 00111100 00111010 
10101110 00000110 00110111 00010111 

10010111 10100001 10101111 00011101 
10110000 01101010 00001100 00101110 
01101001 01100111 11111010 01111011 
00111100 00100000 01011111 11101010 

01111011 10111111 11101001 01000001 
10011111 10110011 01001001 00101000 
11000001 10101011 11111000 10111100 
01001011 10110001 10001101 00110010 

11001100 11000111 10001101 00000100 
10011111 10111000 11100000 00101111 
11011110 01110010 01001111 01100100 
11101110 00011101 11110010 10111011 


11000010 00100110 10011000 00000101 
11101001 01100010 11101011 00111010 
10111001 01110101 11001001 10001000 
11001000 00111001 11001000 11111100 

10001000 00101011 10110100 01110000 
01001011 01010101 10001110 01110101 
01011111 01000101 00110000 11100011 
00100100 10111111 11100010 10111001 

10101011 00001010 01000011 10000011 
11100111 00010100 10000100 10110000 
10100010 01111010 00100100 01010101 
00010010 11110101 00011000 11000111 

01010101 11110011 10100101 11111101 
10101011 11110000 11110010 01001111 
10000001 11100011 00101111 01000111 
11101011 01111101 00000100 00111110 

10101100 01100011 00001100 11101110 
11001001 00100111 10100010 11101010 
10101110 11011001 00111100 00111010 
10101110 00000110 00110111 00010111 

10010111 10100001 10101111 00011101 
10110000 01101010 00001100 00101110 
01101001 01100111 11111010 01111011 
00111100 00100000 01011111 11101010 

01111011 10111111 11101001 01000001 
10011111 10110011 01001001 00101000 
11000001 10101011 11111000 10111100 
01001011 10110001 10001101 00110010 

11001100 11000111 10001101 00000100 
10011111 10111000 11100000 00101111 
11011110 01110010 01001111 01100100 
11101110 00011101 11110010 10111011 


11000010 00100110 10011000 00000101 
11101001 01100010 11101011 00111010 
10111001 01110101 11001001 10001000 
11001000 00111001 11001000 11111100 

10001000 00101011 10110100 01110000 
01001011 01010101 10001110 01110101 
01011111 01000101 00110000 11100011 
00100100 10111111 11100010 10111001 

10101011 00001010 01000011 10000011 
11100111 00010100 10000100 10110000 
10100010 01111010 00100100 01010101 
00010010 11110101 00011000 11000111 

01010101 11110011 10100101 11111101 
10101011 11110000 11110010 01001111 
10000001 11100011 00101111 01000111 
11101011 01111101 00000100 00111110 

10101100 01100011 00001100 11101110 
11001001 00100111 10100010 11101010 
10101110 11011001 00111100 00111010 
10101110 00000110 00110111 00010111 

10010111 10100001 10101111 00011101 
10110000 01101010 00001100 00101110 
01101001 01100111 11111010 01111011 
00111100 00100000 01011111 11101010 

01111011 10111111 11101001 01000001 
10011111 10110011 01001001 00101000 
11000001 10101011 11111000 10111100 
01001011 10110001 10001101 00110010 

11001100 11000111 10001101 00000100 
10011111 10111000 11100000 00101111 
11011110 01110010 01001111 01100100 
11101110 00011101 11110010 10111011 



11000010 00100110 10011000 00000101 
11101001 01100010 11101011 00111010 
10111001 01110101 11001001 10001000 
11001000 00111001 11001000 11111100 

10001000 00101011 10110100 01110000 
01001011 01010101 10001110 01110101 
01011111 01000101 00110000 11100011 
00100100 10111111 11100010 10111001 

10101011 00001010 01000011 10000011 
11100111 00010100 10000100 10110000 
10100010 01111010 00100100 01010101 
00010010 11110101 00011000 11000111 

01010101 11110011 10100101 11111101 
10101011 11110000 11110010 01001111 
10000001 11100011 00101111 01000111 
11101011 01111101 00000100 00111110 

10101100 01100011 00001100 11101110 
11001001 00100111 10100010 11101010 
10101110 11011001 00111100 00111010 
10101110 00000110 00110111 00010111 

10010111 10100001 10101111 00011101 
10110000 01101010 00001100 00101110 
01101001 01100111 11111010 01111011 
00111100 00100000 01011111 11101010 

01111011 10111111 11101001 01000001 
10011111 10110011 01001001 00101000 
11000001 10101011 11111000 10111100 
01001011 10110001 10001101 00110010 

11001100 11000111 10001101 00000100 
10011111 10111000 11100000 00101111 
11011110 01110010 01001111 01100100 
11101110 00011101 11110010 10111011 


11000010 00100110 10011000 00000101 
11101001 01100010 11101011 00111010 
10111001 01110101 11001001 10001000 
11001000 00111001 11001000 11111100 

10001000 00101011 10110100 01110000 
01001011 01010101 10001110 01110101 
01011111 01000101 00110000 11100011 
00100100 10111111 11100010 10111001 

10101011 00001010 01000011 10000011 
11100111 00010100 10000100 10110000 
10100010 01111010 00100100 01010101 
00010010 11110101 00011000 11000111 

01010101 11110011 10100101 11111101 
10101011 11110000 11110010 01001111 
10000001 11100011 00101111 01000111 
11101011 01111101 00000100 00111110 

10101100 01100011 00001100 11101110 
11001001 00100111 10100010 11101010 
10101110 11011001 00111100 00111010 
10101110 00000110 00110111 00010111 

10010111 10100001 10101111 00011101 
10110000 01101010 00001100 00101110 
01101001 01100111 11111010 01111011 
00111100 00100000 01011111 11101010 

01111011 10111111 11101001 01000001 
10011111 10110011 01001001 00101000 
11000001 10101011 11111000 10111100 
01001011 10110001 10001101 00110010 

11001100 11000111 10001101 00000100 
10011111 10111000 11100000 00101111 
11011110 01110010 01001111 01100100 
11101110 00011101 11110010 10111011 


11000010 00100110 10011000 00000101 
11101001 01100010 11101011 00111010 
10111001 01110101 11001001 10001000 
11001000 00111001 11001000 11111100 

10001000 00101011 10110100 01110000 
01001011 01010101 10001110 01110101 
01011111 01000101 00110000 11100011 
00100100 10111111 11100010 10111001 

10101011 00001010 01000011 10000011 
11100111 00010100 10000100 10110000 
10100010 01111010 00100100 01010101 
00010010 11110101 00011000 11000111 

01010101 11110011 10100101 11111101 
10101011 11110000 11110010 01001111 
10000001 11100011 00101111 01000111 
11101011 01111101 00000100 00111110 

10101100 01100011 00001100 11101110 
11001001 00100111 10100010 11101010 
10101110 11011001 00111100 00111010 
10101110 00000110 00110111 00010111 

10010111 10100001 10101111 00011101 
10110000 01101010 00001100 00101110 
01101001 01100111 11111010 01111011 
00111100 00100000 01011111 11101010 

01111011 10111111 11101001 01000001 
10011111 10110011 01001001 00101000 
11000001 10101011 11111000 10111100 
01001011 10110001 10001101 00110010 

11001100 11000111 10001101 00000100 
10011111 10111000 11100000 00101111 
11011110 01110010 01001111 01100100 
11101110 00011101 11110010 10111011 


11000010 00100110 10011000 00000101 
11101001 01100010 11101011 00111010 
10111001 01110101 11001001 10001000 
11001000 00111001 11001000 11111100 

10001000 00101011 10110100 01110000 
01001011 01010101 10001110 01110101 
01011111 01000101 00110000 11100011 
00100100 10111111 11100010 10111001 

10101011 00001010 01000011 10000011 
11100111 00010100 10000100 10110000 
10100010 01111010 00100100 01010101 
00010010 11110101 00011000 11000111 

01010101 11110011 10100101 11111101 
10101011 11110000 11110010 01001111 
10000001 11100011 00101111 01000111 
11101011 01111101 00000100 00111110 

10101100 01100011 00001100 11101110 
11001001 00100111 10100010 11101010 
10101110 11011001 00111100 00111010 
10101110 00000110 00110111 00010111 

10010111 10100001 10101111 00011101 
10110000 01101010 00001100 00101110 
01101001 01100111 11111010 01111011 
00111100 00100000 01011111 11101010 

01111011 10111111 11101001 01000001 
10011111 10110011 01001001 00101000 
11000001 10101011 11111000 10111100 
01001011 10110001 10001101 00110010 

11001100 11000111 10001101 00000100 
10011111 10111000 11100000 00101111 
11011110 01110010 01001111 01100100 
11101110 00011101 11110010 10111011 



11000010 00100110 10011000 00000101 
11101001 01100010 11101011 00111010 
10111001 01110101 11001001 10001000 
11001000 00111001 11001000 11111100 

10001000 00101011 10110100 01110000 
01001011 01010101 10001110 01110101 
01011111 01000101 00110000 11100011 
00100100 10111111 11100010 10111001 

10101011 00001010 01000011 10000011 
11100111 00010100 10000100 10110000 
10100010 01111010 00100100 01010101 
00010010 11110101 00011000 11000111 

01010101 11110011 10100101 11111101 
10101011 11110000 11110010 01001111 
10000001 11100011 00101111 01000111 
11101011 01111101 00000100 00111110 

10101100 01100011 00001100 11101110 
11001001 00100111 10100010 11101010 
10101110 11011001 00111100 00111010 
10101110 00000110 00110111 00010111 

10010111 10100001 10101111 00011101 
10110000 01101010 00001100 00101110 
01101001 01100111 11111010 01111011 
00111100 00100000 01011111 11101010 

01111011 10111111 11101001 01000001 
10011111 10110011 01001001 00101000 
11000001 10101011 11111000 10111100 
01001011 10110001 10001101 00110010 

11001100 11000111 10001101 00000100 
10011111 10111000 11100000 00101111 
11011110 01110010 01001111 01100100 
11101110 00011101 11110010 10111011 


11000010 00100110 10011000 00000101 
11101001 01100010 11101011 00111010 
10111001 01110101 11001001 10001000 
11001000 00111001 11001000 11111100 

10001000 00101011 10110100 01110000 
01001011 01010101 10001110 01110101 
01011111 01000101 00110000 11100011 
00100100 10111111 11100010 10111001 

10101011 00001010 01000011 10000011 
11100111 00010100 10000100 10110000 
10100010 01111010 00100100 01010101 
00010010 11110101 00011000 11000111 

01010101 11110011 10100101 11111101 
10101011 11110000 11110010 01001111 
10000001 11100011 00101111 01000111 
11101011 01111101 00000100 00111110 

10101100 01100011 00001100 11101110 
11001001 00100111 10100010 11101010 
10101110 11011001 00111100 00111010 
10101110 00000110 00110111 00010111 

10010111 10100001 10101111 00011101 
10110000 01101010 00001100 00101110 
01101001 01100111 11111010 01111011 
00111100 00100000 01011111 11101010 

01111011 10111111 11101001 01000001 
10011111 10110011 01001001 00101000 
11000001 10101011 11111000 10111100 
01001011 10110001 10001101 00110010 

11001100 11000111 10001101 00000100 
10011111 10111000 11100000 00101111 
11011110 01110010 01001111 01100100 
11101110 00011101 11110010 10111011 


11000010 00100110 10011000 00000101 
11101001 01100010 11101011 00111010 
10111001 01110101 11001001 10001000 
11001000 00111001 11001000 11111100 

10001000 00101011 10110100 01110000 
01001011 01010101 10001110 01110101 
01011111 01000101 00110000 11100011 
00100100 10111111 11100010 10111001 

10101011 00001010 01000011 10000011 
11100111 00010100 10000100 10110000 
10100010 01111010 00100100 01010101 
00010010 11110101 00011000 11000111 

01010101 11110011 10100101 11111101 
10101011 11110000 11110010 01001111 
10000001 11100011 00101111 01000111 
11101011 01111101 00000100 00111110 

10101100 01100011 00001100 11101110 
11001001 00100111 10100010 11101010 
10101110 11011001 00111100 00111010 
10101110 00000110 00110111 00010111 

10010111 10100001 10101111 00011101 
10110000 01101010 00001100 00101110 
01101001 01100111 11111010 01111011 
00111100 00100000 01011111 11101010 

01111011 10111111 11101001 01000001 
10011111 10110011 01001001 00101000 
11000001 10101011 11111000 10111100 
01001011 10110001 10001101 00110010 

11001100 11000111 10001101 00000100 
10011111 10111000 11100000 00101111 
11011110 01110010 01001111 01100100 
11101110 00011101 11110010 10111011 


11000010 00100110 10011000 00000101 
11101001 01100010 11101011 00111010 
10111001 01110101 11001001 10001000 
11001000 00111001 11001000 11111100 

10001000 00101011 10110100 01110000 
01001011 01010101 10001110 01110101 
01011111 01000101 00110000 11100011 
00100100 10111111 11100010 10111001 

10101011 00001010 01000011 10000011 
11100111 00010100 10000100 10110000 
10100010 01111010 00100100 01010101 
00010010 11110101 00011000 11000111 

01010101 11110011 10100101 11111101 
10101011 11110000 11110010 01001111 
10000001 11100011 00101111 01000111 
11101011 01111101 00000100 00111110 

10101100 01100011 00001100 11101110 
11001001 00100111 10100010 11101010 
10101110 11011001 00111100 00111010 
10101110 00000110 00110111 00010111 

10010111 10100001 10101111 00011101 
10110000 01101010 00001100 00101110 
01101001 01100111 11111010 01111011 
00111100 00100000 01011111 11101010 

01111011 10111111 11101001 01000001 
10011111 10110011 01001001 00101000 
11000001 10101011 11111000 10111100 
01001011 10110001 10001101 00110010 

11001100 11000111 10001101 00000100 
10011111 10111000 11100000 00101111 
11011110 01110010 01001111 01100100 
11101110 00011101 11110010 10111011 



11000010 00100110 10011000 00000101 
11101001 01100010 11101011 00111010 
10111001 01110101 11001001 10001000 
11001000 00111001 11001000 11111100 

10001000 00101011 10110100 01110000 
01001011 01010101 10001110 01110101 
01011111 01000101 00110000 11100011 
00100100 10111111 11100010 10111001 

10101011 00001010 01000011 10000011 
11100111 00010100 10000100 10110000 
10100010 01111010 00100100 01010101 
00010010 11110101 00011000 11000111 

01010101 11110011 10100101 11111101 
10101011 11110000 11110010 01001111 
10000001 11100011 00101111 01000111 
11101011 01111101 00000100 00111110 

10101100 01100011 00001100 11101110 
11001001 00100111 10100010 11101010 
10101110 11011001 00111100 00111010 
10101110 00000110 00110111 00010111 

10010111 10100001 10101111 00011101 
10110000 01101010 00001100 00101110 
01101001 01100111 11111010 01111011 
00111100 00100000 01011111 11101010 

01111011 10111111 11101001 01000001 
10011111 10110011 01001001 00101000 
11000001 10101011 11111000 10111100 
01001011 10110001 10001101 00110010 

11001100 11000111 10001101 00000100 
10011111 10111000 11100000 00101111 
11011110 01110010 01001111 01100100 
11101110 00011101 11110010 10111011 


11000010 00100110 10011000 00000101 
11101001 01100010 11101011 00111010 
10111001 01110101 11001001 10001000 
11001000 00111001 11001000 11111100 

10001000 00101011 10110100 01110000 
01001011 01010101 10001110 01110101 
01011111 01000101 00110000 11100011 
00100100 10111111 11100010 10111001 

10101011 00001010 01000011 10000011 
11100111 00010100 10000100 10110000 
10100010 01111010 00100100 01010101 
00010010 11110101 00011000 11000111 

01010101 11110011 10100101 11111101 
10101011 11110000 11110010 01001111 
10000001 11100011 00101111 01000111 
11101011 01111101 00000100 00111110 

10101100 01100011 00001100 11101110 
11001001 00100111 10100010 11101010 
10101110 11011001 00111100 00111010 
10101110 00000110 00110111 00010111 

10010111 10100001 10101111 00011101 
10110000 01101010 00001100 00101110 
01101001 01100111 11111010 01111011 
00111100 00100000 01011111 11101010 

01111011 10111111 11101001 01000001 
10011111 10110011 01001001 00101000 
11000001 10101011 11111000 10111100 
01001011 10110001 10001101 00110010 

11001100 11000111 10001101 00000100 
10011111 10111000 11100000 00101111 
11011110 01110010 01001111 01100100 
11101110 00011101 11110010 10111011 


11000010 00100110 10011000 00000101 
11101001 01100010 11101011 00111010 
10111001 01110101 11001001 10001000 
11001000 00111001 11001000 11111100 

10001000 00101011 10110100 01110000 
01001011 01010101 10001110 01110101 
01011111 01000101 00110000 11100011 
00100100 10111111 11100010 10111001 

10101011 00001010 01000011 10000011 
11100111 00010100 10000100 10110000 
10100010 01111010 00100100 01010101 
00010010 11110101 00011000 11000111 

01010101 11110011 10100101 11111101 
10101011 11110000 11110010 01001111 
10000001 11100011 00101111 01000111 
11101011 01111101 00000100 00111110 

10101100 01100011 00001100 11101110 
11001001 00100111 10100010 11101010 
10101110 11011001 00111100 00111010 
10101110 00000110 00110111 00010111 

10010111 10100001 10101111 00011101 
10110000 01101010 00001100 00101110 
01101001 01100111 11111010 01111011 
00111100 00100000 01011111 11101010 

01111011 10111111 11101001 01000001 
10011111 10110011 01001001 00101000 
11000001 10101011 11111000 10111100 
01001011 10110001 10001101 00110010 

11001100 11000111 10001101 00000100 
10011111 10111000 11100000 00101111 
11011110 01110010 01001111 01100100 
11101110 00011101 11110010 10111011 


11000010 00100110 10011000 00000101 
11101001 01100010 11101011 00111010 
10111001 01110101 11001001 10001000 
11001000 00111001 11001000 11111100 

10001000 00101011 10110100 01110000 
01001011 01010101 10001110 01110101 
01011111 01000101 00110000 11100011 
00100100 10111111 11100010 10111001 

10101011 00001010 01000011 10000011 
11100111 00010100 10000100 10110000 
10100010 01111010 00100100 01010101 
00010010 11110101 00011000 11000111 

01010101 11110011 10100101 11111101 
10101011 11110000 11110010 01001111 
10000001 11100011 00101111 01000111 
11101011 01111101 00000100 00111110 

10101100 01100011 00001100 11101110 
11001001 00100111 10100010 11101010 
10101110 11011001 00111100 00111010 
10101110 00000110 00110111 00010111 

10010111 10100001 10101111 00011101 
10110000 01101010 00001100 00101110 
01101001 01100111 11111010 01111011 
00111100 00100000 01011111 11101010 

01111011 10111111 11101001 01000001 
10011111 10110011 01001001 00101000 
11000001 10101011 11111000 10111100 
01001011 10110001 10001101 00110010 

11001100 11000111 10001101 00000100 
10011111 10111000 11100000 00101111 
11011110 01110010 01001111 01100100 
11101110 00011101 11110010 10111011 



11000010 00100110 10011000 00000101 
11101001 01100010 11101011 00111010 
10111001 01110101 11001001 10001000 
11001000 00111001 11001000 11111100 

10001000 00101011 10110100 01110000 
01001011 01010101 10001110 01110101 
01011111 01000101 00110000 11100011 
00100100 10111111 11100010 10111001 

10101011 00001010 01000011 10000011 
11100111 00010100 10000100 10110000 
10100010 01111010 00100100 01010101 
00010010 11110101 00011000 11000111 

01010101 11110011 10100101 11111101 
10101011 11110000 11110010 01001111 
10000001 11100011 00101111 01000111 
11101011 01111101 00000100 00111110 

10101100 01100011 00001100 11101110 
11001001 00100111 10100010 11101010 
10101110 11011001 00111100 00111010 
10101110 00000110 00110111 00010111 

10010111 10100001 10101111 00011101 
10110000 01101010 00001100 00101110 
01101001 01100111 11111010 01111011 
00111100 00100000 01011111 11101010 

01111011 10111111 11101001 01000001 
10011111 10110011 01001001 00101000 
11000001 10101011 11111000 10111100 
01001011 10110001 10001101 00110010 

11001100 11000111 10001101 00000100 
10011111 10111000 11100000 00101111 
11011110 01110010 01001111 01100100 
11101110 00011101 11110010 10111011 


11000010 00100110 10011000 00000101 
11101001 01100010 11101011 00111010 
10111001 01110101 11001001 10001000 
11001000 00111001 11001000 11111100 

10001000 00101011 10110100 01110000 
01001011 01010101 10001110 01110101 
01011111 01000101 00110000 11100011 
00100100 10111111 11100010 10111001 

10101011 00001010 01000011 10000011 
11100111 00010100 10000100 10110000 
10100010 01111010 00100100 01010101 
00010010 11110101 00011000 11000111 

01010101 11110011 10100101 11111101 
10101011 11110000 11110010 01001111 
10000001 11100011 00101111 01000111 
11101011 01111101 00000100 00111110 

10101100 01100011 00001100 11101110 
11001001 00100111 10100010 11101010 
10101110 11011001 00111100 00111010 
10101110 00000110 00110111 00010111 

10010111 10100001 10101111 00011101 
10110000 01101010 00001100 00101110 
01101001 01100111 11111010 01111011 
00111100 00100000 01011111 11101010 

01111011 10111111 11101001 01000001 
10011111 10110011 01001001 00101000 
11000001 10101011 11111000 10111100 
01001011 10110001 10001101 00110010 

11001100 11000111 10001101 00000100 
10011111 10111000 11100000 00101111 
11011110 01110010 01001111 01100100 
11101110 00011101 11110010 10111011 


11000010 00100110 10011000 00000101 
11101001 01100010 11101011 00111010 
10111001 01110101 11001001 10001000 
11001000 00111001 11001000 11111100 

10001000 00101011 10110100 01110000 
01001011 01010101 10001110 01110101 
01011111 01000101 00110000 11100011 
00100100 10111111 11100010 10111001 

10101011 00001010 01000011 10000011 
11100111 00010100 10000100 10110000 
10100010 01111010 00100100 01010101 
00010010 11110101 00011000 11000111 

01010101 11110011 10100101 11111101 
10101011 11110000 11110010 01001111 
10000001 11100011 00101111 01000111 
11101011 01111101 00000100 00111110 

10101100 01100011 00001100 11101110 
11001001 00100111 10100010 11101010 
10101110 11011001 00111100 00111010 
10101110 00000110 00110111 00010111 

10010111 10100001 10101111 00011101 
10110000 01101010 00001100 00101110 
01101001 01100111 11111010 01111011 
00111100 00100000 01011111 11101010 

01111011 10111111 11101001 01000001 
10011111 10110011 01001001 00101000 
11000001 10101011 11111000 10111100 
01001011 10110001 10001101 00110010 

11001100 11000111 10001101 00000100 
10011111 10111000 11100000 00101111 
11011110 01110010 01001111 01100100 
11101110 00011101 11110010 10111011 


11000010 00100110 10011000 00000101 
11101001 01100010 11101011 00111010 
10111001 01110101 11001001 10001000 
11001000 00111001 11001000 11111100 

10001000 00101011 10110100 01110000 
01001011 01010101 10001110 01110101 
01011111 01000101 00110000 11100011 
00100100 10111111 11100010 10111001 

10101011 00001010 01000011 10000011 
11100111 00010100 10000100 10110000 
10100010 01111010 00100100 01010101 
00010010 11110101 00011000 11000111 

01010101 11110011 10100101 11111101 
10101011 11110000 11110010 01001111 
10000001 11100011 00101111 01000111 
11101011 01111101 00000100 00111110 

10101100 01100011 00001100 11101110 
11001001 00100111 10100010 11101010 
10101110 11011001 00111100 00111010 
10101110 00000110 00110111 00010111 

10010111 10100001 10101111 00011101 
10110000 01101010 00001100 00101110 
01101001 01100111 11111010 01111011 
00111100 00100000 01011111 11101010 

01111011 10111111 11101001 01000001 
10011111 10110011 01001001 00101000 
11000001 10101011 11111000 10111100 
01001011 10110001 10001101 00110010 

11001100 11000111 10001101 00000100 
10011111 10111000 11100000 00101111 
11011110 01110010 01001111 01100100 
11101110 00011101 11110010 10111011 



11000010 00100110 10011000 00000101 
11101001 01100010 11101011 00111010 
10111001 01110101 11001001 10001000 
11001000 00111001 11001000 11111100 

10001000 00101011 10110100 01110000 
01001011 01010101 10001110 01110101 
01011111 01000101 00110000 11100011 
00100100 10111111 11100010 10111001 

10101011 00001010 01000011 10000011 
11100111 00010100 10000100 10110000 
10100010 01111010 00100100 01010101 
00010010 11110101 00011000 11000111 

01010101 11110011 10100101 11111101 
10101011 11110000 11110010 01001111 
10000001 11100011 00101111 01000111 
11101011 01111101 00000100 00111110 

10101100 01100011 00001100 11101110 
11001001 00100111 10100010 11101010 
10101110 11011001 00111100 00111010 
10101110 00000110 00110111 00010111 

10010111 10100001 10101111 00011101 
10110000 01101010 00001100 00101110 
01101001 01100111 11111010 01111011 
00111100 00100000 01011111 11101010 

01111011 10111111 11101001 01000001 
10011111 10110011 01001001 00101000 
11000001 10101011 11111000 10111100 
01001011 10110001 10001101 00110010 

11001100 11000111 10001101 00000100 
10011111 10111000 11100000 00101111 
11011110 01110010 01001111 01100100 
11101110 00011101 11110010 10111011 


11000010 00100110 10011000 00000101 
11101001 01100010 11101011 00111010 
10111001 01110101 11001001 10001000 
11001000 00111001 11001000 11111100 

10001000 00101011 10110100 01110000 
01001011 01010101 10001110 01110101 
01011111 01000101 00110000 11100011 
00100100 10111111 11100010 10111001 

10101011 00001010 01000011 10000011 
11100111 00010100 10000100 10110000 
10100010 01111010 00100100 01010101 
00010010 11110101 00011000 11000111 

01010101 11110011 10100101 11111101 
10101011 11110000 11110010 01001111 
10000001 11100011 00101111 01000111 
11101011 01111101 00000100 00111110 

10101100 01100011 00001100 11101110 
11001001 00100111 10100010 11101010 
10101110 11011001 00111100 00111010 
10101110 00000110 00110111 00010111 

10010111 10100001 10101111 00011101 
10110000 01101010 00001100 00101110 
01101001 01100111 11111010 01111011 
00111100 00100000 01011111 11101010 

01111011 10111111 11101001 01000001 
10011111 10110011 01001001 00101000 
11000001 10101011 11111000 10111100 
01001011 10110001 10001101 00110010 

11001100 11000111 10001101 00000100 
10011111 10111000 11100000 00101111 
11011110 01110010 01001111 01100100 
11101110 00011101 11110010 10111011 


11000010 00100110 10011000 00000101 
11101001 01100010 11101011 00111010 
10111001 01110101 11001001 10001000 
11001000 00111001 11001000 11111100 

10001000 00101011 10110100 01110000 
01001011 01010101 10001110 01110101 
01011111 01000101 00110000 11100011 
00100100 10111111 11100010 10111001 

10101011 00001010 01000011 10000011 
11100111 00010100 10000100 10110000 
10100010 01111010 00100100 01010101 
00010010 11110101 00011000 11000111 

01010101 11110011 10100101 11111101 
10101011 11110000 11110010 01001111 
10000001 11100011 00101111 01000111 
11101011 01111101 00000100 00111110 

10101100 01100011 00001100 11101110 
11001001 00100111 10100010 11101010 
10101110 11011001 00111100 00111010 
10101110 00000110 00110111 00010111 

10010111 10100001 10101111 00011101 
10110000 01101010 00001100 00101110 
01101001 01100111 11111010 01111011 
00111100 00100000 01011111 11101010 

01111011 10111111 11101001 01000001 
10011111 10110011 01001001 00101000 
11000001 10101011 11111000 10111100 
01001011 10110001 10001101 00110010 

11001100 11000111 10001101 00000100 
10011111 10111000 11100000 00101111 
11011110 01110010 01001111 01100100 
11101110 00011101 11110010 10111011 


11000010 00100110 10011000 00000101 
11101001 01100010 11101011 00111010 
10111001 01110101 11001001 10001000 
11001000 00111001 11001000 11111100 

10001000 00101011 10110100 01110000 
01001011 01010101 10001110 01110101 
01011111 01000101 00110000 11100011 
00100100 10111111 11100010 10111001 

10101011 00001010 01000011 10000011 
11100111 00010100 10000100 10110000 
10100010 01111010 00100100 01010101 
00010010 11110101 00011000 11000111 

01010101 11110011 10100101 11111101 
10101011 11110000 11110010 01001111 
10000001 11100011 00101111 01000111 
11101011 01111101 00000100 00111110 

10101100 01100011 00001100 11101110 
11001001 00100111 10100010 11101010 
10101110 11011001 00111100 00111010 
10101110 00000110 00110111 00010111 

10010111 10100001 10101111 00011101 
10110000 01101010 00001100 00101110 
01101001 01100111 11111010 01111011 
00111100 00100000 01011111 11101010 

01111011 10111111 11101001 01000001 
10011111 10110011 01001001 00101000 
11000001 10101011 11111000 10111100 
01001011 10110001 10001101 00110010 

11001100 11000111 10001101 00000100 
10011111 10111000 11100000 00101111 
11011110 01110010 01001111 01100100 
11101110 00011101 11110010 10111011 



11000010 00100110 10011000 00000101 
11101001 01100010 11101011 00111010 
10111001 01110101 11001001 10001000 
11001000 00111001 11001000 11111100 

10001000 00101011 10110100 01110000 
01001011 01010101 10001110 01110101 
01011111 01000101 00110000 11100011 
00100100 10111111 11100010 10111001 

10101011 00001010 01000011 10000011 
11100111 00010100 10000100 10110000 
10100010 01111010 00100100 01010101 
00010010 11110101 00011000 11000111 

01010101 11110011 10100101 11111101 
10101011 11110000 11110010 01001111 
10000001 11100011 00101111 01000111 
11101011 01111101 00000100 00111110 

10101100 01100011 00001100 11101110 
11001001 00100111 10100010 11101010 
10101110 11011001 00111100 00111010 
10101110 00000110 00110111 00010111 

10010111 10100001 10101111 00011101 
10110000 01101010 00001100 00101110 
01101001 01100111 11111010 01111011 
00111100 00100000 01011111 11101010 

01111011 10111111 11101001 01000001 
10011111 10110011 01001001 00101000 
11000001 10101011 11111000 10111100 
01001011 10110001 10001101 00110010 

11001100 11000111 10001101 00000100 
10011111 10111000 11100000 00101111 
11011110 01110010 01001111 01100100 
11101110 00011101 11110010 10111011 


11000010 00100110 10011000 00000101 
11101001 01100010 11101011 00111010 
10111001 01110101 11001001 10001000 
11001000 00111001 11001000 11111100 

10001000 00101011 10110100 01110000 
01001011 01010101 10001110 01110101 
01011111 01000101 00110000 11100011 
00100100 10111111 11100010 10111001 

10101011 00001010 01000011 10000011 
11100111 00010100 10000100 10110000 
10100010 01111010 00100100 01010101 
00010010 11110101 00011000 11000111 

01010101 11110011 10100101 11111101 
10101011 11110000 11110010 01001111 
10000001 11100011 00101111 01000111 
11101011 01111101 00000100 00111110 

10101100 01100011 00001100 11101110 
11001001 00100111 10100010 11101010 
10101110 11011001 00111100 00111010 
10101110 00000110 00110111 00010111 

10010111 10100001 10101111 00011101 
10110000 01101010 00001100 00101110 
01101001 01100111 11111010 01111011 
00111100 00100000 01011111 11101010 

01111011 10111111 11101001 01000001 
10011111 10110011 01001001 00101000 
11000001 10101011 11111000 10111100 
01001011 10110001 10001101 00110010 

11001100 11000111 10001101 00000100 
10011111 10111000 11100000 00101111 
11011110 01110010 01001111 01100100 
11101110 00011101 11110010 10111011 


11000010 00100110 10011000 00000101 
11101001 01100010 11101011 00111010 
10111001 01110101 11001001 10001000 
11001000 00111001 11001000 11111100 

10001000 00101011 10110100 01110000 
01001011 01010101 10001110 01110101 
01011111 01000101 00110000 11100011 
00100100 10111111 11100010 10111001 

10101011 00001010 01000011 10000011 
11100111 00010100 10000100 10110000 
10100010 01111010 00100100 01010101 
00010010 11110101 00011000 11000111 

01010101 11110011 10100101 11111101 
10101011 11110000 11110010 01001111 
10000001 11100011 00101111 01000111 
11101011 01111101 00000100 00111110 

10101100 01100011 00001100 11101110 
11001001 00100111 10100010 11101010 
10101110 11011001 00111100 00111010 
10101110 00000110 00110111 00010111 

10010111 10100001 10101111 00011101 
10110000 01101010 00001100 00101110 
01101001 01100111 11111010 01111011 
00111100 00100000 01011111 11101010 

01111011 10111111 11101001 01000001 
10011111 10110011 01001001 00101000 
11000001 10101011 11111000 10111100 
01001011 10110001 10001101 00110010 

11001100 11000111 10001101 00000100 
10011111 10111000 11100000 00101111 
11011110 01110010 01001111 01100100 
11101110 00011101 11110010 10111011 


11000010 00100110 10011000 00000101 
11101001 01100010 11101011 00111010 
10111001 01110101 11001001 10001000 
11001000 00111001 11001000 11111100 

10001000 00101011 10110100 01110000 
01001011 01010101 10001110 01110101 
01011111 01000101 00110000 11100011 
00100100 10111111 11100010 10111001 

10101011 00001010 01000011 10000011 
11100111 00010100 10000100 10110000 
10100010 01111010 00100100 01010101 
00010010 11110101 00011000 11000111 

01010101 11110011 10100101 11111101 
10101011 11110000 11110010 01001111 
10000001 11100011 00101111 01000111 
11101011 01111101 00000100 00111110 

10101100 01100011 00001100 11101110 
11001001 00100111 10100010 11101010 
10101110 11011001 00111100 00111010 
10101110 00000110 00110111 00010111 

10010111 10100001 10101111 00011101 
10110000 01101010 00001100 00101110 
01101001 01100111 11111010 01111011 
00111100 00100000 01011111 11101010 

01111011 10111111 11101001 01000001 
10011111 10110011 01001001 00101000 
11000001 10101011 11111000 10111100 
01001011 10110001 10001101 00110010 

11001100 11000111 10001101 00000100 
10011111 10111000 11100000 00101111 
11011110 01110010 01001111 01100100 
11101110 00011101 11110010 10111011 



11000010 00100110 10011000 00000101 
11101001 01100010 11101011 00111010 
10111001 01110101 11001001 10001000 
11001000 00111001 11001000 11111100 

10001000 00101011 10110100 01110000 
01001011 01010101 10001110 01110101 
01011111 01000101 00110000 11100011 
00100100 10111111 11100010 10111001 

10101011 00001010 01000011 10000011 
11100111 00010100 10000100 10110000 
10100010 01111010 00100100 01010101 
00010010 11110101 00011000 11000111 

01010101 11110011 10100101 11111101 
10101011 11110000 11110010 01001111 
10000001 11100011 00101111 01000111 
11101011 01111101 00000100 00111110 

10101100 01100011 00001100 11101110 
11001001 00100111 10100010 11101010 
10101110 11011001 00111100 00111010 
10101110 00000110 00110111 00010111 

10010111 10100001 10101111 00011101 
10110000 01101010 00001100 00101110 
01101001 01100111 11111010 01111011 
00111100 00100000 01011111 11101010 

01111011 10111111 11101001 01000001 
10011111 10110011 01001001 00101000 
11000001 10101011 11111000 10111100 
01001011 10110001 10001101 00110010 

11001100 11000111 10001101 00000100 
10011111 10111000 11100000 00101111 
11011110 01110010 01001111 01100100 
11101110 00011101 11110010 10111011 


11000010 00100110 10011000 00000101 
11101001 01100010 11101011 00111010 
10111001 01110101 11001001 10001000 
11001000 00111001 11001000 11111100 

10001000 00101011 10110100 01110000 
01001011 01010101 10001110 01110101 
01011111 01000101 00110000 11100011 
00100100 10111111 11100010 10111001 

10101011 00001010 01000011 10000011 
11100111 00010100 10000100 10110000 
10100010 01111010 00100100 01010101 
00010010 11110101 00011000 11000111 

01010101 11110011 10100101 11111101 
10101011 11110000 11110010 01001111 
10000001 11100011 00101111 01000111 
11101011 01111101 00000100 00111110 

10101100 01100011 00001100 11101110 
11001001 00100111 10100010 11101010 
10101110 11011001 00111100 00111010 
10101110 00000110 00110111 00010111 

10010111 10100001 10101111 00011101 
10110000 01101010 00001100 00101110 
01101001 01100111 11111010 01111011 
00111100 00100000 01011111 11101010 

01111011 10111111 11101001 01000001 
10011111 10110011 01001001 00101000 
11000001 10101011 11111000 10111100 
01001011 10110001 10001101 00110010 

11001100 11000111 10001101 00000100 
10011111 10111000 11100000 00101111 
11011110 01110010 01001111 01100100 
11101110 00011101 11110010 10111011 


11000010 00100110 10011000 00000101 
11101001 01100010 11101011 00111010 
10111001 01110101 11001001 10001000 
11001000 00111001 11001000 11111100 

10001000 00101011 10110100 01110000 
01001011 01010101 10001110 01110101 
01011111 01000101 00110000 11100011 
00100100 10111111 11100010 10111001 

10101011 00001010 01000011 10000011 
11100111 00010100 10000100 10110000 
10100010 01111010 00100100 01010101 
00010010 11110101 00011000 11000111 

01010101 11110011 10100101 11111101 
10101011 11110000 11110010 01001111 
10000001 11100011 00101111 01000111 
11101011 01111101 00000100 00111110 

10101100 01100011 00001100 11101110 
11001001 00100111 10100010 11101010 
10101110 11011001 00111100 00111010 
10101110 00000110 00110111 00010111 

10010111 10100001 10101111 00011101 
10110000 01101010 00001100 00101110 
01101001 01100111 11111010 01111011 
00111100 00100000 01011111 11101010 

01111011 10111111 11101001 01000001 
10011111 10110011 01001001 00101000 
11000001 10101011 11111000 10111100 
01001011 10110001 10001101 00110010 

11001100 11000111 10001101 00000100 
10011111 10111000 11100000 00101111 
11011110 01110010 01001111 01100100 
11101110 00011101 11110010 10111011 


11000010 00100110 10011000 00000101 
11101001 01100010 11101011 00111010 
10111001 01110101 11001001 10001000 
11001000 00111001 11001000 11111100 

10001000 00101011 10110100 01110000 
01001011 01010101 10001110 01110101 
01011111 01000101 00110000 11100011 
00100100 10111111 11100010 10111001 

10101011 00001010 01000011 10000011 
11100111 00010100 10000100 10110000 
10100010 01111010 00100100 01010101 
00010010 11110101 00011000 11000111 

01010101 11110011 10100101 11111101 
10101011 11110000 11110010 01001111 
10000001 11100011 00101111 01000111 
11101011 01111101 00000100 00111110 

10101100 01100011 00001100 11101110 
11001001 00100111 10100010 11101010 
10101110 11011001 00111100 00111010 
10101110 00000110 00110111 00010111 

10010111 10100001 10101111 00011101 
10110000 01101010 00001100 00101110 
01101001 01100111 11111010 01111011 
00111100 00100000 01011111 11101010 

01111011 10111111 11101001 01000001 
10011111 10110011 01001001 00101000 
11000001 10101011 11111000 10111100 
01001011 10110001 10001101 00110010 

11001100 11000111 10001101 00000100 
10011111 10111000 11100000 00101111 
11011110 01110010 01001111 01100100 
11101110 00011101 11110010 10111011 



11000010 00100110 10011000 00000101 
11101001 01100010 11101011 00111010 
10111001 01110101 11001001 10001000 
11001000 00111001 11001000 11111100 

10001000 00101011 10110100 01110000 
01001011 01010101 10001110 01110101 
01011111 01000101 00110000 11100011 
00100100 10111111 11100010 10111001 

10101011 00001010 01000011 10000011 
11100111 00010100 10000100 10110000 
10100010 01111010 00100100 01010101 
00010010 11110101 00011000 11000111 

01010101 11110011 10100101 11111101 
10101011 11110000 11110010 01001111 
10000001 11100011 00101111 01000111 
11101011 01111101 00000100 00111110 

10101100 01100011 00001100 11101110 
11001001 00100111 10100010 11101010 
10101110 11011001 00111100 00111010 
10101110 00000110 00110111 00010111 

10010111 10100001 10101111 00011101 
10110000 01101010 00001100 00101110 
01101001 01100111 11111010 01111011 
00111100 00100000 01011111 11101010 

01111011 10111111 11101001 01000001 
10011111 10110011 01001001 00101000 
11000001 10101011 11111000 10111100 
01001011 10110001 10001101 00110010 

11001100 11000111 10001101 00000100 
10011111 10111000 11100000 00101111 
11011110 01110010 01001111 01100100 
11101110 00011101 11110010 10111011 


11000010 00100110 10011000 00000101 
11101001 01100010 11101011 00111010 
10111001 01110101 11001001 10001000 
11001000 00111001 11001000 11111100 

10001000 00101011 10110100 01110000 
01001011 01010101 10001110 01110101 
01011111 01000101 00110000 11100011 
00100100 10111111 11100010 10111001 

10101011 00001010 01000011 10000011 
11100111 00010100 10000100 10110000 
10100010 01111010 00100100 01010101 
00010010 11110101 00011000 11000111 

01010101 11110011 10100101 11111101 
10101011 11110000 11110010 01001111 
10000001 11100011 00101111 01000111 
11101011 01111101 00000100 00111110 

10101100 01100011 00001100 11101110 
11001001 00100111 10100010 11101010 
10101110 11011001 00111100 00111010 
10101110 00000110 00110111 00010111 

10010111 10100001 10101111 00011101 
10110000 01101010 00001100 00101110 
01101001 01100111 11111010 01111011 
00111100 00100000 01011111 11101010 

01111011 10111111 11101001 01000001 
10011111 10110011 01001001 00101000 
11000001 10101011 11111000 10111100 
01001011 10110001 10001101 00110010 

11001100 11000111 10001101 00000100 
10011111 10111000 11100000 00101111 
11011110 01110010 01001111 01100100 
11101110 00011101 11110010 10111011 


11000010 00100110 10011000 00000101 
11101001 01100010 11101011 00111010 
10111001 01110101 11001001 10001000 
11001000 00111001 11001000 11111100 

10001000 00101011 10110100 01110000 
01001011 01010101 10001110 01110101 
01011111 01000101 00110000 11100011 
00100100 10111111 11100010 10111001 

10101011 00001010 01000011 10000011 
11100111 00010100 10000100 10110000 
10100010 01111010 00100100 01010101 
00010010 11110101 00011000 11000111 

01010101 11110011 10100101 11111101 
10101011 11110000 11110010 01001111 
10000001 11100011 00101111 01000111 
11101011 01111101 00000100 00111110 

10101100 01100011 00001100 11101110 
11001001 00100111 10100010 11101010 
10101110 11011001 00111100 00111010 
10101110 00000110 00110111 00010111 

10010111 10100001 10101111 00011101 
10110000 01101010 00001100 00101110 
01101001 01100111 11111010 01111011 
00111100 00100000 01011111 11101010 

01111011 10111111 11101001 01000001 
10011111 10110011 01001001 00101000 
11000001 10101011 11111000 10111100 
01001011 10110001 10001101 00110010 

11001100 11000111 10001101 00000100 
10011111 10111000 11100000 00101111 
11011110 01110010 01001111 01100100 
11101110 00011101 11110010 10111011 


11000010 00100110 10011000 00000101 
11101001 01100010 11101011 00111010 
10111001 01110101 11001001 10001000 
11001000 00111001 11001000 11111100 

10001000 00101011 10110100 01110000 
01001011 01010101 10001110 01110101 
01011111 01000101 00110000 11100011 
00100100 10111111 11100010 10111001 

10101011 00001010 01000011 10000011 
11100111 00010100 10000100 10110000 
10100010 01111010 00100100 01010101 
00010010 11110101 00011000 11000111 

01010101 11110011 10100101 11111101 
10101011 11110000 11110010 01001111 
10000001 11100011 00101111 01000111 
11101011 01111101 00000100 00111110 

10101100 01100011 00001100 11101110 
11001001 00100111 10100010 11101010 
10101110 11011001 00111100 00111010 
10101110 00000110 00110111 00010111 

10010111 10100001 10101111 00011101 
10110000 01101010 00001100 00101110 
01101001 01100111 11111010 01111011 
00111100 00100000 01011111 11101010 

01111011 10111111 11101001 01000001 
10011111 10110011 01001001 00101000 
11000001 10101011 11111000 10111100 
01001011 10110001 10001101 00110010 

11001100 11000111 10001101 00000100 
10011111 10111000 11100000 00101111 
11011110 01110010 01001111 01100100 
11101110 00011101 11110010 10111011 



11000010 00100110 10011000 00000101 
11101001 01100010 11101011 00111010 
10111001 01110101 11001001 10001000 
11001000 00111001 11001000 11111100 

10001000 00101011 10110100 01110000 
01001011 01010101 10001110 01110101 
01011111 01000101 00110000 11100011 
00100100 10111111 11100010 10111001 

10101011 00001010 01000011 10000011 
11100111 00010100 10000100 10110000 
10100010 01111010 00100100 01010101 
00010010 11110101 00011000 11000111 

01010101 11110011 10100101 11111101 
10101011 11110000 11110010 01001111 
10000001 11100011 00101111 01000111 
11101011 01111101 00000100 00111110 

10101100 01100011 00001100 11101110 
11001001 00100111 10100010 11101010 
10101110 11011001 00111100 00111010 
10101110 00000110 00110111 00010111 

10010111 10100001 10101111 00011101 
10110000 01101010 00001100 00101110 
01101001 01100111 11111010 01111011 
00111100 00100000 01011111 11101010 

01111011 10111111 11101001 01000001 
10011111 10110011 01001001 00101000 
11000001 10101011 11111000 10111100 
01001011 10110001 10001101 00110010 

11001100 11000111 10001101 00000100 
10011111 10111000 11100000 00101111 
11011110 01110010 01001111 01100100 
11101110 00011101 11110010 10111011 


11000010 00100110 10011000 00000101 
11101001 01100010 11101011 00111010 
10111001 01110101 11001001 10001000 
11001000 00111001 11001000 11111100 

10001000 00101011 10110100 01110000 
01001011 01010101 10001110 01110101 
01011111 01000101 00110000 11100011 
00100100 10111111 11100010 10111001 

10101011 00001010 01000011 10000011 
11100111 00010100 10000100 10110000 
10100010 01111010 00100100 01010101 
00010010 11110101 00011000 11000111 

01010101 11110011 10100101 11111101 
10101011 11110000 11110010 01001111 
10000001 11100011 00101111 01000111 
11101011 01111101 00000100 00111110 

10101100 01100011 00001100 11101110 
11001001 00100111 10100010 11101010 
10101110 11011001 00111100 00111010 
10101110 00000110 00110111 00010111 

10010111 10100001 10101111 00011101 
10110000 01101010 00001100 00101110 
01101001 01100111 11111010 01111011 
00111100 00100000 01011111 11101010 

01111011 10111111 11101001 01000001 
10011111 10110011 01001001 00101000 
11000001 10101011 11111000 10111100 
01001011 10110001 10001101 00110010 

11001100 11000111 10001101 00000100 
10011111 10111000 11100000 00101111 
11011110 01110010 01001111 01100100 
11101110 00011101 11110010 10111011 


11000010 00100110 10011000 00000101 
11101001 01100010 11101011 00111010 
10111001 01110101 11001001 10001000 
11001000 00111001 11001000 11111100 

10001000 00101011 10110100 01110000 
01001011 01010101 10001110 01110101 
01011111 01000101 00110000 11100011 
00100100 10111111 11100010 10111001 

10101011 00001010 01000011 10000011 
11100111 00010100 10000100 10110000 
10100010 01111010 00100100 01010101 
00010010 11110101 00011000 11000111 

01010101 11110011 10100101 11111101 
10101011 11110000 11110010 01001111 
10000001 11100011 00101111 01000111 
11101011 01111101 00000100 00111110 

10101100 01100011 00001100 11101110 
11001001 00100111 10100010 11101010 
10101110 11011001 00111100 00111010 
10101110 00000110 00110111 00010111 

10010111 10100001 10101111 00011101 
10110000 01101010 00001100 00101110 
01101001 01100111 11111010 01111011 
00111100 00100000 01011111 11101010 

01111011 10111111 11101001 01000001 
10011111 10110011 01001001 00101000 
11000001 10101011 11111000 10111100 
01001011 10110001 10001101 00110010 

11001100 11000111 10001101 00000100 
10011111 10111000 11100000 00101111 
11011110 01110010 01001111 01100100 
11101110 00011101 11110010 10111011 


11000010 00100110 10011000 00000101 
11101001 01100010 11101011 00111010 
10111001 01110101 11001001 10001000 
11001000 00111001 11001000 11111100 

10001000 00101011 10110100 01110000 
01001011 01010101 10001110 01110101 
01011111 01000101 00110000 11100011 
00100100 10111111 11100010 10111001 

10101011 00001010 01000011 10000011 
11100111 00010100 10000100 10110000 
10100010 01111010 00100100 01010101 
00010010 11110101 00011000 11000111 

01010101 11110011 10100101 11111101 
10101011 11110000 11110010 01001111 
10000001 11100011 00101111 01000111 
11101011 01111101 00000100 00111110 

10101100 01100011 00001100 11101110 
11001001 00100111 10100010 11101010 
10101110 11011001 00111100 00111010 
10101110 00000110 00110111 00010111 

10010111 10100001 10101111 00011101 
10110000 01101010 00001100 00101110 
01101001 01100111 11111010 01111011 
00111100 00100000 01011111 11101010 

01111011 10111111 11101001 01000001 
10011111 10110011 01001001 00101000 
11000001 10101011 11111000 10111100 
01001011 10110001 10001101 00110010 

11001100 11000111 10001101 00000100 
10011111 10111000 11100000 00101111 
11011110 01110010 01001111 01100100 
11101110 00011101 11110010 10111011 



11000010 00100110 10011000 00000101 
11101001 01100010 11101011 00111010 
10111001 01110101 11001001 10001000 
11001000 00111001 11001000 11111100 

10001000 00101011 10110100 01110000 
01001011 01010101 10001110 01110101 
01011111 01000101 00110000 11100011 
00100100 10111111 11100010 10111001 

10101011 00001010 01000011 10000011 
11100111 00010100 10000100 10110000 
10100010 01111010 00100100 01010101 
00010010 11110101 00011000 11000111 

01010101 11110011 10100101 11111101 
10101011 11110000 11110010 01001111 
10000001 11100011 00101111 01000111 
11101011 01111101 00000100 00111110 

10101100 01100011 00001100 11101110 
11001001 00100111 10100010 11101010 
10101110 11011001 00111100 00111010 
10101110 00000110 00110111 00010111 

10010111 10100001 10101111 00011101 
10110000 01101010 00001100 00101110 
01101001 01100111 11111010 01111011 
00111100 00100000 01011111 11101010 

01111011 10111111 11101001 01000001 
10011111 10110011 01001001 00101000 
11000001 10101011 11111000 10111100 
01001011 10110001 10001101 00110010 

11001100 11000111 10001101 00000100 
10011111 10111000 11100000 00101111 
11011110 01110010 01001111 01100100 
11101110 00011101 11110010 10111011 


11000010 00100110 10011000 00000101 
11101001 01100010 11101011 00111010 
10111001 01110101 11001001 10001000 
11001000 00111001 11001000 11111100 

10001000 00101011 10110100 01110000 
01001011 01010101 10001110 01110101 
01011111 01000101 00110000 11100011 
00100100 10111111 11100010 10111001 

10101011 00001010 01000011 10000011 
11100111 00010100 10000100 10110000 
10100010 01111010 00100100 01010101 
00010010 11110101 00011000 11000111 

01010101 11110011 10100101 11111101 
10101011 11110000 11110010 01001111 
10000001 11100011 00101111 01000111 
11101011 01111101 00000100 00111110 

10101100 01100011 00001100 11101110 
11001001 00100111 10100010 11101010 
10101110 11011001 00111100 00111010 
10101110 00000110 00110111 00010111 

10010111 10100001 10101111 00011101 
10110000 01101010 00001100 00101110 
01101001 01100111 11111010 01111011 
00111100 00100000 01011111 11101010 

01111011 10111111 11101001 01000001 
10011111 10110011 01001001 00101000 
11000001 10101011 11111000 10111100 
01001011 10110001 10001101 00110010 

11001100 11000111 10001101 00000100 
10011111 10111000 11100000 00101111 
11011110 01110010 01001111 01100100 
11101110 00011101 11110010 10111011 


11000010 00100110 10011000 00000101 
11101001 01100010 11101011 00111010 
10111001 01110101 11001001 10001000 
11001000 00111001 11001000 11111100 

10001000 00101011 10110100 01110000 
01001011 01010101 10001110 01110101 
01011111 01000101 00110000 11100011 
00100100 10111111 11100010 10111001 

10101011 00001010 01000011 10000011 
11100111 00010100 10000100 10110000 
10100010 01111010 00100100 01010101 
00010010 11110101 00011000 11000111 

01010101 11110011 10100101 11111101 
10101011 11110000 11110010 01001111 
10000001 11100011 00101111 01000111 
11101011 01111101 00000100 00111110 

10101100 01100011 00001100 11101110 
11001001 00100111 10100010 11101010 
10101110 11011001 00111100 00111010 
10101110 00000110 00110111 00010111 

10010111 10100001 10101111 00011101 
10110000 01101010 00001100 00101110 
01101001 01100111 11111010 01111011 
00111100 00100000 01011111 11101010 

01111011 10111111 11101001 01000001 
10011111 10110011 01001001 00101000 
11000001 10101011 11111000 10111100 
01001011 10110001 10001101 00110010 

11001100 11000111 10001101 00000100 
10011111 10111000 11100000 00101111 
11011110 01110010 01001111 01100100 
11101110 00011101 11110010 10111011 


11000010 00100110 10011000 00000101 
11101001 01100010 11101011 00111010 
10111001 01110101 11001001 10001000 
11001000 00111001 11001000 11111100 

10001000 00101011 10110100 01110000 
01001011 01010101 10001110 01110101 
01011111 01000101 00110000 11100011 
00100100 10111111 11100010 10111001 

10101011 00001010 01000011 10000011 
11100111 00010100 10000100 10110000 
10100010 01111010 00100100 01010101 
00010010 11110101 00011000 11000111 

01010101 11110011 10100101 11111101 
10101011 11110000 11110010 01001111 
10000001 11100011 00101111 01000111 
11101011 01111101 00000100 00111110 

10101100 01100011 00001100 11101110 
11001001 00100111 10100010 11101010 
10101110 11011001 00111100 00111010 
10101110 00000110 00110111 00010111 

10010111 10100001 10101111 00011101 
10110000 01101010 00001100 00101110 
01101001 01100111 11111010 01111011 
00111100 00100000 01011111 11101010 

01111011 10111111 11101001 01000001 
10011111 10110011 01001001 00101000 
11000001 10101011 11111000 10111100 
01001011 10110001 10001101 00110010 

11001100 11000111 10001101 00000100 
10011111 10111000 11100000 00101111 
11011110 01110010 01001111 01100100 
11101110 00011101 11110010 10111011 



11000010 00100110 10011000 00000101 
11101001 01100010 11101011 00111010 
10111001 01110101 11001001 10001000 
11001000 00111001 11001000 11111100 

10001000 00101011 10110100 01110000 
01001011 01010101 10001110 01110101 
01011111 01000101 00110000 11100011 
00100100 10111111 11100010 10111001 

10101011 00001010 01000011 10000011 
11100111 00010100 10000100 10110000 
10100010 01111010 00100100 01010101 
00010010 11110101 00011000 11000111 

01010101 11110011 10100101 11111101 
10101011 11110000 11110010 01001111 
10000001 11100011 00101111 01000111 
11101011 01111101 00000100 00111110 

10101100 01100011 00001100 11101110 
11001001 00100111 10100010 11101010 
10101110 11011001 00111100 00111010 
10101110 00000110 00110111 00010111 

10010111 10100001 10101111 00011101 
10110000 01101010 00001100 00101110 
01101001 01100111 11111010 01111011 
00111100 00100000 01011111 11101010 

01111011 10111111 11101001 01000001 
10011111 10110011 01001001 00101000 
11000001 10101011 11111000 10111100 
01001011 10110001 10001101 00110010 

11001100 11000111 10001101 00000100 
10011111 10111000 11100000 00101111 
11011110 01110010 01001111 01100100 
11101110 00011101 11110010 10111011 


11000010 00100110 10011000 00000101 
11101001 01100010 11101011 00111010 
10111001 01110101 11001001 10001000 
11001000 00111001 11001000 11111100 

10001000 00101011 10110100 01110000 
01001011 01010101 10001110 01110101 
01011111 01000101 00110000 11100011 
00100100 10111111 11100010 10111001 

10101011 00001010 01000011 10000011 
11100111 00010100 10000100 10110000 
10100010 01111010 00100100 01010101 
00010010 11110101 00011000 11000111 

01010101 11110011 10100101 11111101 
10101011 11110000 11110010 01001111 
10000001 11100011 00101111 01000111 
11101011 01111101 00000100 00111110 

10101100 01100011 00001100 11101110 
11001001 00100111 10100010 11101010 
10101110 11011001 00111100 00111010 
10101110 00000110 00110111 00010111 

10010111 10100001 10101111 00011101 
10110000 01101010 00001100 00101110 
01101001 01100111 11111010 01111011 
00111100 00100000 01011111 11101010 

01111011 10111111 11101001 01000001 
10011111 10110011 01001001 00101000 
11000001 10101011 11111000 10111100 
01001011 10110001 10001101 00110010 

11001100 11000111 10001101 00000100 
10011111 10111000 11100000 00101111 
11011110 01110010 01001111 01100100 
11101110 00011101 11110010 10111011 


11000010 00100110 10011000 00000101 
11101001 01100010 11101011 00111010 
10111001 01110101 11001001 10001000 
11001000 00111001 11001000 11111100 

10001000 00101011 10110100 01110000 
01001011 01010101 10001110 01110101 
01011111 01000101 00110000 11100011 
00100100 10111111 11100010 10111001 

10101011 00001010 01000011 10000011 
11100111 00010100 10000100 10110000 
10100010 01111010 00100100 01010101 
00010010 11110101 00011000 11000111 

01010101 11110011 10100101 11111101 
10101011 11110000 11110010 01001111 
10000001 11100011 00101111 01000111 
11101011 01111101 00000100 00111110 

10101100 01100011 00001100 11101110 
11001001 00100111 10100010 11101010 
10101110 11011001 00111100 00111010 
10101110 00000110 00110111 00010111 

10010111 10100001 10101111 00011101 
10110000 01101010 00001100 00101110 
01101001 01100111 11111010 01111011 
00111100 00100000 01011111 11101010 

01111011 10111111 11101001 01000001 
10011111 10110011 01001001 00101000 
11000001 10101011 11111000 10111100 
01001011 10110001 10001101 00110010 

11001100 11000111 10001101 00000100 
10011111 10111000 11100000 00101111 
11011110 01110010 01001111 01100100 
11101110 00011101 11110010 10111011 


11000010 00100110 10011000 00000101 
11101001 01100010 11101011 00111010 
10111001 01110101 11001001 10001000 
11001000 00111001 11001000 11111100 

10001000 00101011 10110100 01110000 
01001011 01010101 10001110 01110101 
01011111 01000101 00110000 11100011 
00100100 10111111 11100010 10111001 

10101011 00001010 01000011 10000011 
11100111 00010100 10000100 10110000 
10100010 01111010 00100100 01010101 
00010010 11110101 00011000 11000111 

01010101 11110011 10100101 11111101 
10101011 11110000 11110010 01001111 
10000001 11100011 00101111 01000111 
11101011 01111101 00000100 00111110 

10101100 01100011 00001100 11101110 
11001001 00100111 10100010 11101010 
10101110 11011001 00111100 00111010 
10101110 00000110 00110111 00010111 

10010111 10100001 10101111 00011101 
10110000 01101010 00001100 00101110 
01101001 01100111 11111010 01111011 
00111100 00100000 01011111 11101010 

01111011 10111111 11101001 01000001 
10011111 10110011 01001001 00101000 
11000001 10101011 11111000 10111100 
01001011 10110001 10001101 00110010 

11001100 11000111 10001101 00000100 
10011111 10111000 11100000 00101111 
11011110 01110010 01001111 01100100 
11101110 00011101 11110010 10111011 



11000010 00100110 10011000 00000101 
11101001 01100010 11101011 00111010 
10111001 01110101 11001001 10001000 
11001000 00111001 11001000 11111100 

10001000 00101011 10110100 01110000 
01001011 01010101 10001110 01110101 
01011111 01000101 00110000 11100011 
00100100 10111111 11100010 10111001 

10101011 00001010 01000011 10000011 
11100111 00010100 10000100 10110000 
10100010 01111010 00100100 01010101 
00010010 11110101 00011000 11000111 

01010101 11110011 10100101 11111101 
10101011 11110000 11110010 01001111 
10000001 11100011 00101111 01000111 
11101011 01111101 00000100 00111110 

10101100 01100011 00001100 11101110 
11001001 00100111 10100010 11101010 
10101110 11011001 00111100 00111010 
10101110 00000110 00110111 00010111 

10010111 10100001 10101111 00011101 
10110000 01101010 00001100 00101110 
01101001 01100111 11111010 01111011 
00111100 00100000 01011111 11101010 

01111011 10111111 11101001 01000001 
10011111 10110011 01001001 00101000 
11000001 10101011 11111000 10111100 
01001011 10110001 10001101 00110010 

11001100 11000111 10001101 00000100 
10011111 10111000 11100000 00101111 
11011110 01110010 01001111 01100100 
11101110 00011101 11110010 10111011 


11000010 00100110 10011000 00000101 
11101001 01100010 11101011 00111010 
10111001 01110101 11001001 10001000 
11001000 00111001 11001000 11111100 

10001000 00101011 10110100 01110000 
01001011 01010101 10001110 01110101 
01011111 01000101 00110000 11100011 
00100100 10111111 11100010 10111001 

10101011 00001010 01000011 10000011 
11100111 00010100 10000100 10110000 
10100010 01111010 00100100 01010101 
00010010 11110101 00011000 11000111 

01010101 11110011 10100101 11111101 
10101011 11110000 11110010 01001111 
10000001 11100011 00101111 01000111 
11101011 01111101 00000100 00111110 

10101100 01100011 00001100 11101110 
11001001 00100111 10100010 11101010 
10101110 11011001 00111100 00111010 
10101110 00000110 00110111 00010111 

10010111 10100001 10101111 00011101 
10110000 01101010 00001100 00101110 
01101001 01100111 11111010 01111011 
00111100 00100000 01011111 11101010 

01111011 10111111 11101001 01000001 
10011111 10110011 01001001 00101000 
11000001 10101011 11111000 10111100 
01001011 10110001 10001101 00110010 

11001100 11000111 10001101 00000100 
10011111 10111000 11100000 00101111 
11011110 01110010 01001111 01100100 
11101110 00011101 11110010 10111011 


11000010 00100110 10011000 00000101 
11101001 01100010 11101011 00111010 
10111001 01110101 11001001 10001000 
11001000 00111001 11001000 11111100 

10001000 00101011 10110100 01110000 
01001011 01010101 10001110 01110101 
01011111 01000101 00110000 11100011 
00100100 10111111 11100010 10111001 

10101011 00001010 01000011 10000011 
11100111 00010100 10000100 10110000 
10100010 01111010 00100100 01010101 
00010010 11110101 00011000 11000111 

01010101 11110011 10100101 11111101 
10101011 11110000 11110010 01001111 
10000001 11100011 00101111 01000111 
11101011 01111101 00000100 00111110 

10101100 01100011 00001100 11101110 
11001001 00100111 10100010 11101010 
10101110 11011001 00111100 00111010 
10101110 00000110 00110111 00010111 

10010111 10100001 10101111 00011101 
10110000 01101010 00001100 00101110 
01101001 01100111 11111010 01111011 
00111100 00100000 01011111 11101010 

01111011 10111111 11101001 01000001 
10011111 10110011 01001001 00101000 
11000001 10101011 11111000 10111100 
01001011 10110001 10001101 00110010 

11001100 11000111 10001101 00000100 
10011111 10111000 11100000 00101111 
11011110 01110010 01001111 01100100 
11101110 00011101 11110010 10111011 


11000010 00100110 10011000 00000101 
11101001 01100010 11101011 00111010 
10111001 01110101 11001001 10001000 
11001000 00111001 11001000 11111100 

10001000 00101011 10110100 01110000 
01001011 01010101 10001110 01110101 
01011111 01000101 00110000 11100011 
00100100 10111111 11100010 10111001 

10101011 00001010 01000011 10000011 
11100111 00010100 10000100 10110000 
10100010 01111010 00100100 01010101 
00010010 11110101 00011000 11000111 

01010101 11110011 10100101 11111101 
10101011 11110000 11110010 01001111 
10000001 11100011 00101111 01000111 
11101011 01111101 00000100 00111110 

10101100 01100011 00001100 11101110 
11001001 00100111 10100010 11101010 
10101110 11011001 00111100 00111010 
10101110 00000110 00110111 00010111 

10010111 10100001 10101111 00011101 
10110000 01101010 00001100 00101110 
01101001 01100111 11111010 01111011 
00111100 00100000 01011111 11101010 

01111011 10111111 11101001 01000001 
10011111 10110011 01001001 00101000 
11000001 10101011 11111000 10111100 
01001011 10110001 10001101 00110010 

11001100 11000111 10001101 00000100 
10011111 10111000 11100000 00101111 
11011110 01110010 01001111 01100100 
11101110 00011101 11110010 10111011 




10110010 11110101 10100001 00111000 
01011001 11111100 10111011 11110101 
11110110 10000111 11011111 01010000 
11100010 10011100 10010110 11010100 

01111101 10000001 01101100 11111000 
00011001 00110011 01000011 11011111 
11010110 11001001 10101000 00110111 
10100001 11000010 00001100 00110010 

01100101 10101011 11110101 01101000 
11100001 10010000 11101111 00111001 
10001101 10000110 01001000 11000001 
11000011 00011001 11001110 10111101 

11100010 00111111 00111011 00110100 
11000100 01110000 00011100 01100010 
10100101 00111000 01000100 10110001 
10001000 00101110 01100100 10001011 

10110001 00001001 11100011 01011110 
11010000 10101100 01011011 00110001 
00101000 00101011 00010111 11111101 
11100100 01100101 11101001 10111000 

10101101 11011110 11010000 01000011 
11110100 01010110 00000000 10000001 
11101010 11011111 00110011 00111111 
01010011 00011001 11001101 01010101 

00110100 00011100 10101111 00101100 
00100110 00000001 00010111 10101100 
11101101 10011001 00001101 00011001 
10100101 11101000 01101101 11011100 

11010100 10001110 00010000 10100001 
00010100 00110100 00111001 10110001 
00011000 10010110 11000010 11100010 
01101001 00000100 01000000 01001000 


10110010 11110101 10100001 00111000 
01011001 11111100 10111011 11110101 
11110110 10000111 11011111 01010000 
11100010 10011100 10010110 11010100 

01111101 10000001 01101100 11111000 
00011001 00110011 01000011 11011111 
11010110 11001001 10101000 00110111 
10100001 11000010 00001100 00110010 

01100101 10101011 11110101 01101000 
11100001 10010000 11101111 00111001 
10001101 10000110 01001000 11000001 
11000011 00011001 11001110 10111101 

11100010 00111111 00111011 00110100 
11000100 01110000 00011100 01100010 
10100101 00111000 01000100 10110001 
10001000 00101110 01100100 10001011 

10110001 00001001 11100011 01011110 
11010000 10101100 01011011 00110001 
00101000 00101011 00010111 11111101 
11100100 01100101 11101001 10111000 

10101101 11011110 11010000 01000011 
11110100 01010110 00000000 10000001 
11101010 11011111 00110011 00111111 
01010011 00011001 11001101 01010101 

00110100 00011100 10101111 00101100 
00100110 00000001 00010111 10101100 
11101101 10011001 00001101 00011001 
10100101 11101000 01101101 11011100 

11010100 10001110 00010000 10100001 
00010100 00110100 00111001 10110001 
00011000 10010110 11000010 11100010 
01101001 00000100 01000000 01001000 


10110010 11110101 10100001 00111000 
01011001 11111100 10111011 11110101 
11110110 10000111 11011111 01010000 
11100010 10011100 10010110 11010100 

01111101 10000001 01101100 11111000 
00011001 00110011 01000011 11011111 
11010110 11001001 10101000 00110111 
10100001 11000010 00001100 00110010 

01100101 10101011 11110101 01101000 
11100001 10010000 11101111 00111001 
10001101 10000110 01001000 11000001 
11000011 00011001 11001110 10111101 

11100010 00111111 00111011 00110100 
11000100 01110000 00011100 01100010 
10100101 00111000 01000100 10110001 
10001000 00101110 01100100 10001011 

10110001 00001001 11100011 01011110 
11010000 10101100 01011011 00110001 
00101000 00101011 00010111 11111101 
11100100 01100101 11101001 10111000 

10101101 11011110 11010000 01000011 
11110100 01010110 00000000 10000001 
11101010 11011111 00110011 00111111 
01010011 00011001 11001101 01010101 

00110100 00011100 10101111 00101100 
00100110 00000001 00010111 10101100 
11101101 10011001 00001101 00011001 
10100101 11101000 01101101 11011100 

11010100 10001110 00010000 10100001 
00010100 00110100 00111001 10110001 
00011000 10010110 11000010 11100010 
01101001 00000100 01000000 01001000 


10110010 11110101 10100001 00111000 
01011001 11111100 10111011 11110101 
11110110 10000111 11011111 01010000 
11100010 10011100 10010110 11010100 

01111101 10000001 01101100 11111000 
00011001 00110011 01000011 11011111 
11010110 11001001 10101000 00110111 
10100001 11000010 00001100 00110010 

01100101 10101011 11110101 01101000 
11100001 10010000 11101111 00111001 
10001101 10000110 01001000 11000001 
11000011 00011001 11001110 10111101 

11100010 00111111 00111011 00110100 
11000100 01110000 00011100 01100010 
10100101 00111000 01000100 10110001 
10001000 00101110 01100100 10001011 

10110001 00001001 11100011 01011110 
11010000 10101100 01011011 00110001 
00101000 00101011 00010111 11111101 
11100100 01100101 11101001 10111000 

10101101 11011110 11010000 01000011 
11110100 01010110 00000000 10000001 
11101010 11011111 00110011 00111111 
01010011 00011001 11001101 01010101 

00110100 00011100 10101111 00101100 
00100110 00000001 00010111 10101100 
11101101 10011001 00001101 00011001 
10100101 11101000 01101101 11011100 

11010100 10001110 00010000 10100001 
00010100 00110100 00111001 10110001 
00011000 10010110 11000010 11100010 
01101001 00000100 01000000 01001000 



10110010 11110101 10100001 00111000 
01011001 11111100 10111011 11110101 
11110110 10000111 11011111 01010000 
11100010 10011100 10010110 11010100 

01111101 10000001 01101100 11111000 
00011001 00110011 01000011 11011111 
11010110 11001001 10101000 00110111 
10100001 11000010 00001100 00110010 

01100101 10101011 11110101 01101000 
11100001 10010000 11101111 00111001 
10001101 10000110 01001000 11000001 
11000011 00011001 11001110 10111101 

11100010 00111111 00111011 00110100 
11000100 01110000 00011100 01100010 
10100101 00111000 01000100 10110001 
10001000 00101110 01100100 10001011 

10110001 00001001 11100011 01011110 
11010000 10101100 01011011 00110001 
00101000 00101011 00010111 11111101 
11100100 01100101 11101001 10111000 

10101101 11011110 11010000 01000011 
11110100 01010110 00000000 10000001 
11101010 11011111 00110011 00111111 
01010011 00011001 11001101 01010101 

00110100 00011100 10101111 00101100 
00100110 00000001 00010111 10101100 
11101101 10011001 00001101 00011001 
10100101 11101000 01101101 11011100 

11010100 10001110 00010000 10100001 
00010100 00110100 00111001 10110001 
00011000 10010110 11000010 11100010 
01101001 00000100 01000000 01001000 


10110010 11110101 10100001 00111000 
01011001 11111100 10111011 11110101 
11110110 10000111 11011111 01010000 
11100010 10011100 10010110 11010100 

01111101 10000001 01101100 11111000 
00011001 00110011 01000011 11011111 
11010110 11001001 10101000 00110111 
10100001 11000010 00001100 00110010 

01100101 10101011 11110101 01101000 
11100001 10010000 11101111 00111001 
10001101 10000110 01001000 11000001 
11000011 00011001 11001110 10111101 

11100010 00111111 00111011 00110100 
11000100 01110000 00011100 01100010 
10100101 00111000 01000100 10110001 
10001000 00101110 01100100 10001011 

10110001 00001001 11100011 01011110 
11010000 10101100 01011011 00110001 
00101000 00101011 00010111 11111101 
11100100 01100101 11101001 10111000 

10101101 11011110 11010000 01000011 
11110100 01010110 00000000 10000001 
11101010 11011111 00110011 00111111 
01010011 00011001 11001101 01010101 

00110100 00011100 10101111 00101100 
00100110 00000001 00010111 10101100 
11101101 10011001 00001101 00011001 
10100101 11101000 01101101 11011100 

11010100 10001110 00010000 10100001 
00010100 00110100 00111001 10110001 
00011000 10010110 11000010 11100010 
01101001 00000100 01000000 01001000 


10110010 11110101 10100001 00111000 
01011001 11111100 10111011 11110101 
11110110 10000111 11011111 01010000 
11100010 10011100 10010110 11010100 

01111101 10000001 01101100 11111000 
00011001 00110011 01000011 11011111 
11010110 11001001 10101000 00110111 
10100001 11000010 00001100 00110010 

01100101 10101011 11110101 01101000 
11100001 10010000 11101111 00111001 
10001101 10000110 01001000 11000001 
11000011 00011001 11001110 10111101 

11100010 00111111 00111011 00110100 
11000100 01110000 00011100 01100010 
10100101 00111000 01000100 10110001 
10001000 00101110 01100100 10001011 

10110001 00001001 11100011 01011110 
11010000 10101100 01011011 00110001 
00101000 00101011 00010111 11111101 
11100100 01100101 11101001 10111000 

10101101 11011110 11010000 01000011 
11110100 01010110 00000000 10000001 
11101010 11011111 00110011 00111111 
01010011 00011001 11001101 01010101 

00110100 00011100 10101111 00101100 
00100110 00000001 00010111 10101100 
11101101 10011001 00001101 00011001 
10100101 11101000 01101101 11011100 

11010100 10001110 00010000 10100001 
00010100 00110100 00111001 10110001 
00011000 10010110 11000010 11100010 
01101001 00000100 01000000 01001000 


10110010 11110101 10100001 00111000 
01011001 11111100 10111011 11110101 
11110110 10000111 11011111 01010000 
11100010 10011100 10010110 11010100 

01111101 10000001 01101100 11111000 
00011001 00110011 01000011 11011111 
11010110 11001001 10101000 00110111 
10100001 11000010 00001100 00110010 

01100101 10101011 11110101 01101000 
11100001 10010000 11101111 00111001 
10001101 10000110 01001000 11000001 
11000011 00011001 11001110 10111101 

11100010 00111111 00111011 00110100 
11000100 01110000 00011100 01100010 
10100101 00111000 01000100 10110001 
10001000 00101110 01100100 10001011 

10110001 00001001 11100011 01011110 
11010000 10101100 01011011 00110001 
00101000 00101011 00010111 11111101 
11100100 01100101 11101001 10111000 

10101101 11011110 11010000 01000011 
11110100 01010110 00000000 10000001 
11101010 11011111 00110011 00111111 
01010011 00011001 11001101 01010101 

00110100 00011100 10101111 00101100 
00100110 00000001 00010111 10101100 
11101101 10011001 00001101 00011001 
10100101 11101000 01101101 11011100 

11010100 10001110 00010000 10100001 
00010100 00110100 00111001 10110001 
00011000 10010110 11000010 11100010 
01101001 00000100 01000000 01001000 



10110010 11110101 10100001 00111000 
01011001 11111100 10111011 11110101 
11110110 10000111 11011111 01010000 
11100010 10011100 10010110 11010100 

01111101 10000001 01101100 11111000 
00011001 00110011 01000011 11011111 
11010110 11001001 10101000 00110111 
10100001 11000010 00001100 00110010 

01100101 10101011 11110101 01101000 
11100001 10010000 11101111 00111001 
10001101 10000110 01001000 11000001 
11000011 00011001 11001110 10111101 

11100010 00111111 00111011 00110100 
11000100 01110000 00011100 01100010 
10100101 00111000 01000100 10110001 
10001000 00101110 01100100 10001011 

10110001 00001001 11100011 01011110 
11010000 10101100 01011011 00110001 
00101000 00101011 00010111 11111101 
11100100 01100101 11101001 10111000 

10101101 11011110 11010000 01000011 
11110100 01010110 00000000 10000001 
11101010 11011111 00110011 00111111 
01010011 00011001 11001101 01010101 

00110100 00011100 10101111 00101100 
00100110 00000001 00010111 10101100 
11101101 10011001 00001101 00011001 
10100101 11101000 01101101 11011100 

11010100 10001110 00010000 10100001 
00010100 00110100 00111001 10110001 
00011000 10010110 11000010 11100010 
01101001 00000100 01000000 01001000 


10110010 11110101 10100001 00111000 
01011001 11111100 10111011 11110101 
11110110 10000111 11011111 01010000 
11100010 10011100 10010110 11010100 

01111101 10000001 01101100 11111000 
00011001 00110011 01000011 11011111 
11010110 11001001 10101000 00110111 
10100001 11000010 00001100 00110010 

01100101 10101011 11110101 01101000 
11100001 10010000 11101111 00111001 
10001101 10000110 01001000 11000001 
11000011 00011001 11001110 10111101 

11100010 00111111 00111011 00110100 
11000100 01110000 00011100 01100010 
10100101 00111000 01000100 10110001 
10001000 00101110 01100100 10001011 

10110001 00001001 11100011 01011110 
11010000 10101100 01011011 00110001 
00101000 00101011 00010111 11111101 
11100100 01100101 11101001 10111000 

10101101 11011110 11010000 01000011 
11110100 01010110 00000000 10000001 
11101010 11011111 00110011 00111111 
01010011 00011001 11001101 01010101 

00110100 00011100 10101111 00101100 
00100110 00000001 00010111 10101100 
11101101 10011001 00001101 00011001 
10100101 11101000 01101101 11011100 

11010100 10001110 00010000 10100001 
00010100 00110100 00111001 10110001 
00011000 10010110 11000010 11100010 
01101001 00000100 01000000 01001000 


10110010 11110101 10100001 00111000 
01011001 11111100 10111011 11110101 
11110110 10000111 11011111 01010000 
11100010 10011100 10010110 11010100 

01111101 10000001 01101100 11111000 
00011001 00110011 01000011 11011111 
11010110 11001001 10101000 00110111 
10100001 11000010 00001100 00110010 

01100101 10101011 11110101 01101000 
11100001 10010000 11101111 00111001 
10001101 10000110 01001000 11000001 
11000011 00011001 11001110 10111101 

11100010 00111111 00111011 00110100 
11000100 01110000 00011100 01100010 
10100101 00111000 01000100 10110001 
10001000 00101110 01100100 10001011 

10110001 00001001 11100011 01011110 
11010000 10101100 01011011 00110001 
00101000 00101011 00010111 11111101 
11100100 01100101 11101001 10111000 

10101101 11011110 11010000 01000011 
11110100 01010110 00000000 10000001 
11101010 11011111 00110011 00111111 
01010011 00011001 11001101 01010101 

00110100 00011100 10101111 00101100 
00100110 00000001 00010111 10101100 
11101101 10011001 00001101 00011001 
10100101 11101000 01101101 11011100 

11010100 10001110 00010000 10100001 
00010100 00110100 00111001 10110001 
00011000 10010110 11000010 11100010 
01101001 00000100 01000000 01001000 


10110010 11110101 10100001 00111000 
01011001 11111100 10111011 11110101 
11110110 10000111 11011111 01010000 
11100010 10011100 10010110 11010100 

01111101 10000001 01101100 11111000 
00011001 00110011 01000011 11011111 
11010110 11001001 10101000 00110111 
10100001 11000010 00001100 00110010 

01100101 10101011 11110101 01101000 
11100001 10010000 11101111 00111001 
10001101 10000110 01001000 11000001 
11000011 00011001 11001110 10111101 

11100010 00111111 00111011 00110100 
11000100 01110000 00011100 01100010 
10100101 00111000 01000100 10110001 
10001000 00101110 01100100 10001011 

10110001 00001001 11100011 01011110 
11010000 10101100 01011011 00110001 
00101000 00101011 00010111 11111101 
11100100 01100101 11101001 10111000 

10101101 11011110 11010000 01000011 
11110100 01010110 00000000 10000001 
11101010 11011111 00110011 00111111 
01010011 00011001 11001101 01010101 

00110100 00011100 10101111 00101100 
00100110 00000001 00010111 10101100 
11101101 10011001 00001101 00011001 
10100101 11101000 01101101 11011100 

11010100 10001110 00010000 10100001 
00010100 00110100 00111001 10110001 
00011000 10010110 11000010 11100010 
01101001 00000100 01000000 01001000 



10110010 11110101 10100001 00111000 
01011001 11111100 10111011 11110101 
11110110 10000111 11011111 01010000 
11100010 10011100 10010110 11010100 

01111101 10000001 01101100 11111000 
00011001 00110011 01000011 11011111 
11010110 11001001 10101000 00110111 
10100001 11000010 00001100 00110010 

01100101 10101011 11110101 01101000 
11100001 10010000 11101111 00111001 
10001101 10000110 01001000 11000001 
11000011 00011001 11001110 10111101 

11100010 00111111 00111011 00110100 
11000100 01110000 00011100 01100010 
10100101 00111000 01000100 10110001 
10001000 00101110 01100100 10001011 

10110001 00001001 11100011 01011110 
11010000 10101100 01011011 00110001 
00101000 00101011 00010111 11111101 
11100100 01100101 11101001 10111000 

10101101 11011110 11010000 01000011 
11110100 01010110 00000000 10000001 
11101010 11011111 00110011 00111111 
01010011 00011001 11001101 01010101 

00110100 00011100 10101111 00101100 
00100110 00000001 00010111 10101100 
11101101 10011001 00001101 00011001 
10100101 11101000 01101101 11011100 

11010100 10001110 00010000 10100001 
00010100 00110100 00111001 10110001 
00011000 10010110 11000010 11100010 
01101001 00000100 01000000 01001000 


10110010 11110101 10100001 00111000 
01011001 11111100 10111011 11110101 
11110110 10000111 11011111 01010000 
11100010 10011100 10010110 11010100 

01111101 10000001 01101100 11111000 
00011001 00110011 01000011 11011111 
11010110 11001001 10101000 00110111 
10100001 11000010 00001100 00110010 

01100101 10101011 11110101 01101000 
11100001 10010000 11101111 00111001 
10001101 10000110 01001000 11000001 
11000011 00011001 11001110 10111101 

11100010 00111111 00111011 00110100 
11000100 01110000 00011100 01100010 
10100101 00111000 01000100 10110001 
10001000 00101110 01100100 10001011 

10110001 00001001 11100011 01011110 
11010000 10101100 01011011 00110001 
00101000 00101011 00010111 11111101 
11100100 01100101 11101001 10111000 

10101101 11011110 11010000 01000011 
11110100 01010110 00000000 10000001 
11101010 11011111 00110011 00111111 
01010011 00011001 11001101 01010101 

00110100 00011100 10101111 00101100 
00100110 00000001 00010111 10101100 
11101101 10011001 00001101 00011001 
10100101 11101000 01101101 11011100 

11010100 10001110 00010000 10100001 
00010100 00110100 00111001 10110001 
00011000 10010110 11000010 11100010 
01101001 00000100 01000000 01001000 


10110010 11110101 10100001 00111000 
01011001 11111100 10111011 11110101 
11110110 10000111 11011111 01010000 
11100010 10011100 10010110 11010100 

01111101 10000001 01101100 11111000 
00011001 00110011 01000011 11011111 
11010110 11001001 10101000 00110111 
10100001 11000010 00001100 00110010 

01100101 10101011 11110101 01101000 
11100001 10010000 11101111 00111001 
10001101 10000110 01001000 11000001 
11000011 00011001 11001110 10111101 

11100010 00111111 00111011 00110100 
11000100 01110000 00011100 01100010 
10100101 00111000 01000100 10110001 
10001000 00101110 01100100 10001011 

10110001 00001001 11100011 01011110 
11010000 10101100 01011011 00110001 
00101000 00101011 00010111 11111101 
11100100 01100101 11101001 10111000 

10101101 11011110 11010000 01000011 
11110100 01010110 00000000 10000001 
11101010 11011111 00110011 00111111 
01010011 00011001 11001101 01010101 

00110100 00011100 10101111 00101100 
00100110 00000001 00010111 10101100 
11101101 10011001 00001101 00011001 
10100101 11101000 01101101 11011100 

11010100 10001110 00010000 10100001 
00010100 00110100 00111001 10110001 
00011000 10010110 11000010 11100010 
01101001 00000100 01000000 01001000 


10110010 11110101 10100001 00111000 
01011001 11111100 10111011 11110101 
11110110 10000111 11011111 01010000 
11100010 10011100 10010110 11010100 

01111101 10000001 01101100 11111000 
00011001 00110011 01000011 11011111 
11010110 11001001 10101000 00110111 
10100001 11000010 00001100 00110010 

01100101 10101011 11110101 01101000 
11100001 10010000 11101111 00111001 
10001101 10000110 01001000 11000001 
11000011 00011001 11001110 10111101 

11100010 00111111 00111011 00110100 
11000100 01110000 00011100 01100010 
10100101 00111000 01000100 10110001 
10001000 00101110 01100100 10001011 

10110001 00001001 11100011 01011110 
11010000 10101100 01011011 00110001 
00101000 00101011 00010111 11111101 
11100100 01100101 11101001 10111000 

10101101 11011110 11010000 01000011 
11110100 01010110 00000000 10000001 
11101010 11011111 00110011 00111111 
01010011 00011001 11001101 01010101 

00110100 00011100 10101111 00101100 
00100110 00000001 00010111 10101100 
11101101 10011001 00001101 00011001 
10100101 11101000 01101101 11011100 

11010100 10001110 00010000 10100001 
00010100 00110100 00111001 10110001 
00011000 10010110 11000010 11100010 
01101001 00000100 01000000 01001000 



10110010 11110101 10100001 00111000 
01011001 11111100 10111011 11110101 
11110110 10000111 11011111 01010000 
11100010 10011100 10010110 11010100 

01111101 10000001 01101100 11111000 
00011001 00110011 01000011 11011111 
11010110 11001001 10101000 00110111 
10100001 11000010 00001100 00110010 

01100101 10101011 11110101 01101000 
11100001 10010000 11101111 00111001 
10001101 10000110 01001000 11000001 
11000011 00011001 11001110 10111101 

11100010 00111111 00111011 00110100 
11000100 01110000 00011100 01100010 
10100101 00111000 01000100 10110001 
10001000 00101110 01100100 10001011 

10110001 00001001 11100011 01011110 
11010000 10101100 01011011 00110001 
00101000 00101011 00010111 11111101 
11100100 01100101 11101001 10111000 

10101101 11011110 11010000 01000011 
11110100 01010110 00000000 10000001 
11101010 11011111 00110011 00111111 
01010011 00011001 11001101 01010101 

00110100 00011100 10101111 00101100 
00100110 00000001 00010111 10101100 
11101101 10011001 00001101 00011001 
10100101 11101000 01101101 11011100 

11010100 10001110 00010000 10100001 
00010100 00110100 00111001 10110001 
00011000 10010110 11000010 11100010 
01101001 00000100 01000000 01001000 


10110010 11110101 10100001 00111000 
01011001 11111100 10111011 11110101 
11110110 10000111 11011111 01010000 
11100010 10011100 10010110 11010100 

01111101 10000001 01101100 11111000 
00011001 00110011 01000011 11011111 
11010110 11001001 10101000 00110111 
10100001 11000010 00001100 00110010 

01100101 10101011 11110101 01101000 
11100001 10010000 11101111 00111001 
10001101 10000110 01001000 11000001 
11000011 00011001 11001110 10111101 

11100010 00111111 00111011 00110100 
11000100 01110000 00011100 01100010 
10100101 00111000 01000100 10110001 
10001000 00101110 01100100 10001011 

10110001 00001001 11100011 01011110 
11010000 10101100 01011011 00110001 
00101000 00101011 00010111 11111101 
11100100 01100101 11101001 10111000 

10101101 11011110 11010000 01000011 
11110100 01010110 00000000 10000001 
11101010 11011111 00110011 00111111 
01010011 00011001 11001101 01010101 

00110100 00011100 10101111 00101100 
00100110 00000001 00010111 10101100 
11101101 10011001 00001101 00011001 
10100101 11101000 01101101 11011100 

11010100 10001110 00010000 10100001 
00010100 00110100 00111001 10110001 
00011000 10010110 11000010 11100010 
01101001 00000100 01000000 01001000 


10110010 11110101 10100001 00111000 
01011001 11111100 10111011 11110101 
11110110 10000111 11011111 01010000 
11100010 10011100 10010110 11010100 

01111101 10000001 01101100 11111000 
00011001 00110011 01000011 11011111 
11010110 11001001 10101000 00110111 
10100001 11000010 00001100 00110010 

01100101 10101011 11110101 01101000 
11100001 10010000 11101111 00111001 
10001101 10000110 01001000 11000001 
11000011 00011001 11001110 10111101 

11100010 00111111 00111011 00110100 
11000100 01110000 00011100 01100010 
10100101 00111000 01000100 10110001 
10001000 00101110 01100100 10001011 

10110001 00001001 11100011 01011110 
11010000 10101100 01011011 00110001 
00101000 00101011 00010111 11111101 
11100100 01100101 11101001 10111000 

10101101 11011110 11010000 01000011 
11110100 01010110 00000000 10000001 
11101010 11011111 00110011 00111111 
01010011 00011001 11001101 01010101 

00110100 00011100 10101111 00101100 
00100110 00000001 00010111 10101100 
11101101 10011001 00001101 00011001 
10100101 11101000 01101101 11011100 

11010100 10001110 00010000 10100001 
00010100 00110100 00111001 10110001 
00011000 10010110 11000010 11100010 
01101001 00000100 01000000 01001000 


10110010 11110101 10100001 00111000 
01011001 11111100 10111011 11110101 
11110110 10000111 11011111 01010000 
11100010 10011100 10010110 11010100 

01111101 10000001 01101100 11111000 
00011001 00110011 01000011 11011111 
11010110 11001001 10101000 00110111 
10100001 11000010 00001100 00110010 

01100101 10101011 11110101 01101000 
11100001 10010000 11101111 00111001 
10001101 10000110 01001000 11000001 
11000011 00011001 11001110 10111101 

11100010 00111111 00111011 00110100 
11000100 01110000 00011100 01100010 
10100101 00111000 01000100 10110001 
10001000 00101110 01100100 10001011 

10110001 00001001 11100011 01011110 
11010000 10101100 01011011 00110001 
00101000 00101011 00010111 11111101 
11100100 01100101 11101001 10111000 

10101101 11011110 11010000 01000011 
11110100 01010110 00000000 10000001 
11101010 11011111 00110011 00111111 
01010011 00011001 11001101 01010101 

00110100 00011100 10101111 00101100 
00100110 00000001 00010111 10101100 
11101101 10011001 00001101 00011001 
10100101 11101000 01101101 11011100 

11010100 10001110 00010000 10100001 
00010100 00110100 00111001 10110001 
00011000 10010110 11000010 11100010 
01101001 00000100 01000000 01001000 



10110010 11110101 10100001 00111000 
01011001 11111100 10111011 11110101 
11110110 10000111 11011111 01010000 
11100010 10011100 10010110 11010100 

01111101 10000001 01101100 11111000 
00011001 00110011 01000011 11011111 
11010110 11001001 10101000 00110111 
10100001 11000010 00001100 00110010 

01100101 10101011 11110101 01101000 
11100001 10010000 11101111 00111001 
10001101 10000110 01001000 11000001 
11000011 00011001 11001110 10111101 

11100010 00111111 00111011 00110100 
11000100 01110000 00011100 01100010 
10100101 00111000 01000100 10110001 
10001000 00101110 01100100 10001011 

10110001 00001001 11100011 01011110 
11010000 10101100 01011011 00110001 
00101000 00101011 00010111 11111101 
11100100 01100101 11101001 10111000 

10101101 11011110 11010000 01000011 
11110100 01010110 00000000 10000001 
11101010 11011111 00110011 00111111 
01010011 00011001 11001101 01010101 

00110100 00011100 10101111 00101100 
00100110 00000001 00010111 10101100 
11101101 10011001 00001101 00011001 
10100101 11101000 01101101 11011100 

11010100 10001110 00010000 10100001 
00010100 00110100 00111001 10110001 
00011000 10010110 11000010 11100010 
01101001 00000100 01000000 01001000 


10110010 11110101 10100001 00111000 
01011001 11111100 10111011 11110101 
11110110 10000111 11011111 01010000 
11100010 10011100 10010110 11010100 

01111101 10000001 01101100 11111000 
00011001 00110011 01000011 11011111 
11010110 11001001 10101000 00110111 
10100001 11000010 00001100 00110010 

01100101 10101011 11110101 01101000 
11100001 10010000 11101111 00111001 
10001101 10000110 01001000 11000001 
11000011 00011001 11001110 10111101 

11100010 00111111 00111011 00110100 
11000100 01110000 00011100 01100010 
10100101 00111000 01000100 10110001 
10001000 00101110 01100100 10001011 

10110001 00001001 11100011 01011110 
11010000 10101100 01011011 00110001 
00101000 00101011 00010111 11111101 
11100100 01100101 11101001 10111000 

10101101 11011110 11010000 01000011 
11110100 01010110 00000000 10000001 
11101010 11011111 00110011 00111111 
01010011 00011001 11001101 01010101 

00110100 00011100 10101111 00101100 
00100110 00000001 00010111 10101100 
11101101 10011001 00001101 00011001 
10100101 11101000 01101101 11011100 

11010100 10001110 00010000 10100001 
00010100 00110100 00111001 10110001 
00011000 10010110 11000010 11100010 
01101001 00000100 01000000 01001000 


10110010 11110101 10100001 00111000 
01011001 11111100 10111011 11110101 
11110110 10000111 11011111 01010000 
11100010 10011100 10010110 11010100 

01111101 10000001 01101100 11111000 
00011001 00110011 01000011 11011111 
11010110 11001001 10101000 00110111 
10100001 11000010 00001100 00110010 

01100101 10101011 11110101 01101000 
11100001 10010000 11101111 00111001 
10001101 10000110 01001000 11000001 
11000011 00011001 11001110 10111101 

11100010 00111111 00111011 00110100 
11000100 01110000 00011100 01100010 
10100101 00111000 01000100 10110001 
10001000 00101110 01100100 10001011 

10110001 00001001 11100011 01011110 
11010000 10101100 01011011 00110001 
00101000 00101011 00010111 11111101 
11100100 01100101 11101001 10111000 

10101101 11011110 11010000 01000011 
11110100 01010110 00000000 10000001 
11101010 11011111 00110011 00111111 
01010011 00011001 11001101 01010101 

00110100 00011100 10101111 00101100 
00100110 00000001 00010111 10101100 
11101101 10011001 00001101 00011001 
10100101 11101000 01101101 11011100 

11010100 10001110 00010000 10100001 
00010100 00110100 00111001 10110001 
00011000 10010110 11000010 11100010 
01101001 00000100 01000000 01001000 


10110010 11110101 10100001 00111000 
01011001 11111100 10111011 11110101 
11110110 10000111 11011111 01010000 
11100010 10011100 10010110 11010100 

01111101 10000001 01101100 11111000 
00011001 00110011 01000011 11011111 
11010110 11001001 10101000 00110111 
10100001 11000010 00001100 00110010 

01100101 10101011 11110101 01101000 
11100001 10010000 11101111 00111001 
10001101 10000110 01001000 11000001 
11000011 00011001 11001110 10111101 

11100010 00111111 00111011 00110100 
11000100 01110000 00011100 01100010 
10100101 00111000 01000100 10110001 
10001000 00101110 01100100 10001011 

10110001 00001001 11100011 01011110 
11010000 10101100 01011011 00110001 
00101000 00101011 00010111 11111101 
11100100 01100101 11101001 10111000 

10101101 11011110 11010000 01000011 
11110100 01010110 00000000 10000001 
11101010 11011111 00110011 00111111 
01010011 00011001 11001101 01010101 

00110100 00011100 10101111 00101100 
00100110 00000001 00010111 10101100 
11101101 10011001 00001101 00011001 
10100101 11101000 01101101 11011100 

11010100 10001110 00010000 10100001 
00010100 00110100 00111001 10110001 
00011000 10010110 11000010 11100010 
01101001 00000100 01000000 01001000 



10110010 11110101 10100001 00111000 
01011001 11111100 10111011 11110101 
11110110 10000111 11011111 01010000 
11100010 10011100 10010110 11010100 

01111101 10000001 01101100 11111000 
00011001 00110011 01000011 11011111 
11010110 11001001 10101000 00110111 
10100001 11000010 00001100 00110010 

01100101 10101011 11110101 01101000 
11100001 10010000 11101111 00111001 
10001101 10000110 01001000 11000001 
11000011 00011001 11001110 10111101 

11100010 00111111 00111011 00110100 
11000100 01110000 00011100 01100010 
10100101 00111000 01000100 10110001 
10001000 00101110 01100100 10001011 

10110001 00001001 11100011 01011110 
11010000 10101100 01011011 00110001 
00101000 00101011 00010111 11111101 
11100100 01100101 11101001 10111000 

10101101 11011110 11010000 01000011 
11110100 01010110 00000000 10000001 
11101010 11011111 00110011 00111111 
01010011 00011001 11001101 01010101 

00110100 00011100 10101111 00101100 
00100110 00000001 00010111 10101100 
11101101 10011001 00001101 00011001 
10100101 11101000 01101101 11011100 

11010100 10001110 00010000 10100001 
00010100 00110100 00111001 10110001 
00011000 10010110 11000010 11100010 
01101001 00000100 01000000 01001000 


10110010 11110101 10100001 00111000 
01011001 11111100 10111011 11110101 
11110110 10000111 11011111 01010000 
11100010 10011100 10010110 11010100 

01111101 10000001 01101100 11111000 
00011001 00110011 01000011 11011111 
11010110 11001001 10101000 00110111 
10100001 11000010 00001100 00110010 

01100101 10101011 11110101 01101000 
11100001 10010000 11101111 00111001 
10001101 10000110 01001000 11000001 
11000011 00011001 11001110 10111101 

11100010 00111111 00111011 00110100 
11000100 01110000 00011100 01100010 
10100101 00111000 01000100 10110001 
10001000 00101110 01100100 10001011 

10110001 00001001 11100011 01011110 
11010000 10101100 01011011 00110001 
00101000 00101011 00010111 11111101 
11100100 01100101 11101001 10111000 

10101101 11011110 11010000 01000011 
11110100 01010110 00000000 10000001 
11101010 11011111 00110011 00111111 
01010011 00011001 11001101 01010101 

00110100 00011100 10101111 00101100 
00100110 00000001 00010111 10101100 
11101101 10011001 00001101 00011001 
10100101 11101000 01101101 11011100 

11010100 10001110 00010000 10100001 
00010100 00110100 00111001 10110001 
00011000 10010110 11000010 11100010 
01101001 00000100 01000000 01001000 


10110010 11110101 10100001 00111000 
01011001 11111100 10111011 11110101 
11110110 10000111 11011111 01010000 
11100010 10011100 10010110 11010100 

01111101 10000001 01101100 11111000 
00011001 00110011 01000011 11011111 
11010110 11001001 10101000 00110111 
10100001 11000010 00001100 00110010 

01100101 10101011 11110101 01101000 
11100001 10010000 11101111 00111001 
10001101 10000110 01001000 11000001 
11000011 00011001 11001110 10111101 

11100010 00111111 00111011 00110100 
11000100 01110000 00011100 01100010 
10100101 00111000 01000100 10110001 
10001000 00101110 01100100 10001011 

10110001 00001001 11100011 01011110 
11010000 10101100 01011011 00110001 
00101000 00101011 00010111 11111101 
11100100 01100101 11101001 10111000 

10101101 11011110 11010000 01000011 
11110100 01010110 00000000 10000001 
11101010 11011111 00110011 00111111 
01010011 00011001 11001101 01010101 

00110100 00011100 10101111 00101100 
00100110 00000001 00010111 10101100 
11101101 10011001 00001101 00011001 
10100101 11101000 01101101 11011100 

11010100 10001110 00010000 10100001 
00010100 00110100 00111001 10110001 
00011000 10010110 11000010 11100010 
01101001 00000100 01000000 01001000 


10110010 11110101 10100001 00111000 
01011001 11111100 10111011 11110101 
11110110 10000111 11011111 01010000 
11100010 10011100 10010110 11010100 

01111101 10000001 01101100 11111000 
00011001 00110011 01000011 11011111 
11010110 11001001 10101000 00110111 
10100001 11000010 00001100 00110010 

01100101 10101011 11110101 01101000 
11100001 10010000 11101111 00111001 
10001101 10000110 01001000 11000001 
11000011 00011001 11001110 10111101 

11100010 00111111 00111011 00110100 
11000100 01110000 00011100 01100010 
10100101 00111000 01000100 10110001 
10001000 00101110 01100100 10001011 

10110001 00001001 11100011 01011110 
11010000 10101100 01011011 00110001 
00101000 00101011 00010111 11111101 
11100100 01100101 11101001 10111000 

10101101 11011110 11010000 01000011 
11110100 01010110 00000000 10000001 
11101010 11011111 00110011 00111111 
01010011 00011001 11001101 01010101 

00110100 00011100 10101111 00101100 
00100110 00000001 00010111 10101100 
11101101 10011001 00001101 00011001 
10100101 11101000 01101101 11011100 

11010100 10001110 00010000 10100001 
00010100 00110100 00111001 10110001 
00011000 10010110 11000010 11100010 
01101001 00000100 01000000 01001000 



10110010 11110101 10100001 00111000 
01011001 11111100 10111011 11110101 
11110110 10000111 11011111 01010000 
11100010 10011100 10010110 11010100 

01111101 10000001 01101100 11111000 
00011001 00110011 01000011 11011111 
11010110 11001001 10101000 00110111 
10100001 11000010 00001100 00110010 

01100101 10101011 11110101 01101000 
11100001 10010000 11101111 00111001 
10001101 10000110 01001000 11000001 
11000011 00011001 11001110 10111101 

11100010 00111111 00111011 00110100 
11000100 01110000 00011100 01100010 
10100101 00111000 01000100 10110001 
10001000 00101110 01100100 10001011 

10110001 00001001 11100011 01011110 
11010000 10101100 01011011 00110001 
00101000 00101011 00010111 11111101 
11100100 01100101 11101001 10111000 

10101101 11011110 11010000 01000011 
11110100 01010110 00000000 10000001 
11101010 11011111 00110011 00111111 
01010011 00011001 11001101 01010101 

00110100 00011100 10101111 00101100 
00100110 00000001 00010111 10101100 
11101101 10011001 00001101 00011001 
10100101 11101000 01101101 11011100 

11010100 10001110 00010000 10100001 
00010100 00110100 00111001 10110001 
00011000 10010110 11000010 11100010 
01101001 00000100 01000000 01001000 


